00000000
00000000
00000000
00000000
00000000
00000000
00000000
00000000
00000000
00000000
00000000
00000000
00000000
00000000
00000000
00000000
00000000
00000000
00000000
00000000
00000000
00000000
00000000
00000000
00000000
00000000
00000000
00000006
0000001B
0000001F
00000027
00000063
00000050
0000001F
0000004F
0000003A
FFFFFFFC
FFFFFFDC
FFFFFFEE
FFFFFFCB
FFFFFF81
FFFFFFA5
FFFFFFEC
FFFFFFAC
FFFFFFBF
FFFFFFFA
00000009
FFFFFFEE
00000010
00000029
0000000B
FFFFFFF5
0000000F
00000005
FFFFFFFB
00000035
00000043
0000000B
FFFFFFC7
FFFFFF9F
00000007
00000001
00000003
FFFFFFF5
00000037
0000004F
0000000F
FFFFFFC2
FFFFFF81
00000001
0000000D
00000009
FFFFFFF7
00000024
00000033
00000000
FFFFFFEF
FFFFFFC6
00000000
00000000
FFFFFFF1
00000000
00000000
00000000
00000000
00000000
00000000
00000000
00000000
00000000
00000000
00000000
00000000
00000000
00000000
00000000
00000000
00000000
00000000
00000000
00000000
00000000
00000000
00000000
00000000
00000000
00000000
00000000
00000000
00000000
00000000
00000000
00000000
00000000
00000000
00000000
00000000
00000000
00000000
00000000
00000000
00000000
00000000
00000000
00000000
00000000
00000000
00000000
00000000
00000000
00000000
00000000
00000000
00000000
00000000
00000011
0000001B
00000002
0000002A
0000004F
00000014
00000022
0000004C
0000002A
FFFFFFEF
00000016
00000011
0000000D
00000050
00000031
FFFFFFFF
00000031
0000001E
FFFFFFF3
FFFFFFCF
FFFFFFE9
FFFFFFC8
FFFFFF81
FFFFFFB4
FFFFFFE8
FFFFFFA4
FFFFFFBE
FFFFFFF4
FFFFFFF2
FFFFFFD9
00000016
FFFFFFE8
FFFFFF81
0000001E
00000003
FFFFFFC6
00000007
00000001
FFFFFFE0
00000011
FFFFFFE3
FFFFFF8C
0000000B
FFFFFFFD
FFFFFFE4
00000014
FFFFFFF3
FFFFFFCE
00000008
FFFFFFE5
FFFFFFA6
FFFFFFFC
FFFFFFF3
FFFFFFBE
FFFFFFCE
FFFFFFE3
0000003B
FFFFFFE4
FFFFFFA1
FFFFFFFB
0000001B
FFFFFF9C
FFFFFFB2
0000001C
00000005
FFFFFFCE
FFFFFFF6
00000003
FFFFFFAD
00000014
0000004D
00000019
0000001A
0000001B
FFFFFFE2
00000009
0000007F
00000043
FFFFFFD8
00000054
0000003D
00000000
00000000
00000000
00000000
00000000
00000000
00000000
00000000
00000000
00000000
00000000
00000000
00000000
00000000
00000000
00000000
00000000
00000000
00000000
00000000
00000000
00000000
00000000
00000000
00000000
00000000
00000000
00000026
0000002D
00000013
00000031
0000003B
0000001D
00000014
00000018
00000011
FFFFFFCD
FFFFFF9E
FFFFFFC4
FFFFFF9F
FFFFFF81
FFFFFFAE
FFFFFFC3
FFFFFFA8
FFFFFFDA
00000025
00000029
00000017
0000002F
00000049
00000037
00000022
0000003B
00000021
0000001B
FFFFFFC2
00000026
0000001A
FFFFFF82
00000047
00000012
FFFFFFB8
00000037
00000023
FFFFFFCD
00000012
00000028
FFFFFF81
00000038
0000000D
FFFFFFC3
00000036
00000019
FFFFFFD9
0000000D
0000000A
FFFFFFBE
00000026
FFFFFFFE
FFFFFFD5
00000029
00000000
00000000
00000000
00000000
00000000
00000000
00000000
00000000
00000000
00000000
00000000
00000000
00000000
00000000
00000000
00000000
00000000
00000000
00000000
00000000
00000000
00000000
00000000
00000000
00000000
00000000
00000000
00000024
FFFFFFE7
FFFFFFF1
FFFFFFA7
FFFFFF81
FFFFFFE8
00000009
00000033
00000027
00000022
FFFFFFEC
FFFFFFFD
FFFFFFB4
FFFFFF91
FFFFFFF3
00000012
00000030
00000027
00000009
00000005
FFFFFFFE
FFFFFFF3
FFFFFFC5
FFFFFFE2
00000005
00000002
00000010
FFFFFFEC
FFFFFFB1
0000000D
00000015
00000043
0000007F
FFFFFFF4
FFFFFFBD
0000002A
FFFFFFF5
FFFFFFB5
00000000
0000000B
00000054
0000007C
FFFFFFF0
FFFFFFAD
00000032
FFFFFFF5
FFFFFFE6
0000000C
0000001C
00000036
0000004E
FFFFFFDA
FFFFFFE0
00000000
FFFFFFCD
0000007F
FFFFFFF6
FFFFFFE4
0000001F
00000008
FFFFFFF3
FFFFFFF2
00000000
FFFFFFC6
00000070
FFFFFFE1
FFFFFFE6
00000015
00000007
00000006
FFFFFFE8
FFFFFFFC
FFFFFFE0
00000046
FFFFFFF4
FFFFFFFA
00000018
00000001
00000007
00000006
00000000
0000007F
0000007B
0000007D
0000007E
0000007A
0000007A
0000007E
0000007C
0000007D
0000007F
0000007C
0000007E
0000007D
00000078
00000079
0000007E
0000007A
0000007E
00000063
0000005E
00000062
00000062
0000005D
0000005D
00000064
0000005F
00000062
00000000
00000000
00000000
00000000
00000000
00000000
00000000
00000000
00000000
00000000
00000000
00000000
00000000
00000000
00000000
00000000
00000000
00000000
00000000
00000000
00000000
00000000
00000000
00000000
00000000
00000000
00000000
FFFFFFEA
FFFFFFC8
FFFFFFDB
FFFFFFAC
FFFFFF81
FFFFFFA5
FFFFFFC7
FFFFFFAA
FFFFFFD9
00000001
0000000C
00000016
00000006
00000013
00000018
00000001
0000000C
0000000F
0000001B
00000032
00000016
0000004C
0000006C
00000044
0000003A
0000004E
0000001D
00000007
FFFFFFF9
00000007
FFFFFFE2
00000029
00000052
FFFFFFEF
00000066
0000007F
00000000
FFFFFFFB
00000001
FFFFFFE3
00000030
0000005D
FFFFFFED
00000054
0000007B
FFFFFFF6
00000001
00000006
FFFFFFFC
00000017
00000031
FFFFFFFA
00000036
00000054
00000007
FFFFFFEE
0000001A
00000004
FFFFFFC1
00000003
FFFFFFE7
FFFFFF81
FFFFFFC2
00000006
FFFFFFFD
00000012
00000000
FFFFFFCD
FFFFFFFC
FFFFFFF1
FFFFFF85
FFFFFFD3
00000008
FFFFFFF4
0000000D
00000007
FFFFFFEB
0000000A
FFFFFFE1
FFFFFFC4
FFFFFFD7
00000000
00000000
00000000
00000000
00000000
00000000
00000000
00000000
00000000
00000000
00000000
00000000
00000000
00000000
00000000
00000000
00000000
00000000
00000000
00000000
00000000
00000000
00000000
00000000
00000000
00000000
00000000
00000000
00000000
00000000
00000000
00000000
00000000
00000000
00000000
00000000
00000000
00000000
00000000
00000000
00000000
00000000
00000000
00000000
00000000
00000000
00000000
00000000
00000000
00000000
00000000
00000000
00000000
00000000
0000001D
FFFFFFF4
FFFFFFED
FFFFFFF7
FFFFFFA7
FFFFFFB5
00000022
FFFFFFF0
FFFFFFF3
FFFFFFCA
FFFFFFDC
FFFFFFD8
FFFFFFD4
FFFFFFD3
FFFFFFD0
FFFFFFC4
FFFFFFC5
FFFFFFBF
0000000E
00000031
00000044
00000038
0000007F
00000076
0000001B
0000004B
0000004D
00000007
00000020
0000001F
FFFFFFE2
FFFFFF92
00000021
0000000D
0000000D
00000038
00000000
00000031
00000017
FFFFFFE3
FFFFFF81
00000023
00000013
00000013
00000038
FFFFFFFB
00000017
0000000F
FFFFFFDD
FFFFFFCD
00000004
0000001A
0000000F
0000002C
FFFFFFE5
0000000F
00000011
FFFFFFD3
FFFFFFF0
00000019
00000015
00000011
0000000E
0000003D
0000005C
00000057
00000010
00000019
0000003A
0000002C
00000025
00000019
00000059
0000007B
0000007F
00000032
00000041
0000006A
0000005A
0000005E
0000005D
FFFFFFFD
00000002
0000000A
0000001E
00000027
0000001A
FFFFFFBD
FFFFFF81
00000000
FFFFFFFC
00000005
FFFFFFFB
0000001E
0000003D
0000000B
FFFFFFB4
FFFFFF81
00000019
00000001
00000004
FFFFFFFB
00000010
00000021
0000000A
FFFFFFC7
FFFFFFBC
0000000A
00000025
0000004D
00000053
00000046
00000075
0000007F
0000002F
0000003C
00000036
00000004
FFFFFFF6
FFFFFFD5
FFFFFFE3
FFFFFFCA
FFFFFFC4
FFFFFFF0
FFFFFFE8
FFFFFFE4
FFFFFFE4
FFFFFFC3
FFFFFFD2
FFFFFFC8
FFFFFFA5
FFFFFFC6
FFFFFFE4
FFFFFFD7
FFFFFFED
FFFFFFEC
00000035
FFFFFFFA
FFFFFF8E
00000056
FFFFFFED
FFFFFFC3
0000004E
FFFFFFDA
FFFFFFFC
00000020
00000006
FFFFFF81
0000005B
FFFFFFF5
FFFFFFC6
00000055
FFFFFFEA
FFFFFFFE
00000019
00000001
FFFFFFC1
00000025
FFFFFFF7
FFFFFFDA
00000038
FFFFFFF5
FFFFFFE8
FFFFFFDE
00000042
FFFFFFF9
0000000F
0000003F
00000020
00000008
FFFFFF89
FFFFFFF1
FFFFFFDA
00000031
FFFFFFF4
00000005
00000051
0000001D
0000001C
FFFFFF81
FFFFFFF1
FFFFFFFA
00000014
00000005
FFFFFFFF
00000028
00000000
00000004
FFFFFFCF
FFFFFFFA
0000003A
0000003D
00000036
0000007F
00000072
00000006
00000034
00000031
FFFFFFE2
FFFFFFD3
FFFFFFC0
FFFFFFCF
FFFFFFB2
FFFFFFA4
FFFFFFDB
FFFFFFC8
FFFFFFBB
00000020
FFFFFFF4
00000003
FFFFFFF6
FFFFFFD2
FFFFFFE8
0000001D
00000007
00000012
00000016
00000018
FFFFFFD4
FFFFFFDC
FFFFFFFA
0000007F
0000000F
FFFFFFEC
FFFFFFA7
00000017
00000025
FFFFFFDE
FFFFFFC4
FFFFFFCE
00000052
00000025
00000011
FFFFFFC6
00000001
00000009
FFFFFFDD
00000004
FFFFFFFC
00000030
FFFFFFFB
FFFFFFFE
FFFFFFF9
00000017
00000068
00000047
FFFFFFD3
00000009
FFFFFFFB
FFFFFFCF
FFFFFFF7
FFFFFFD5
00000042
0000007F
00000062
FFFFFFFC
0000002E
0000001C
00000012
00000033
0000000A
00000002
00000038
00000027
FFFFFFD5
00000001
FFFFFFFE
0000000B
00000023
0000000F
