FFFEB02F
000016B0
00000499
FFFFF4CA
000033C9
00001E1D
00002DBB
00000D79
FFFE175C
00009529
0000349F
00007DDD
00000807
00000711
00001314
FFFEA7DE
FFFF012B
0000F547
0000166B
00000AAD
FFFEC7B4
00004D2F
000026F1
000004F9
FFFF0DA0
000009FE
000021E3
000011D0
00005DFF
FFFFFAE3
00000100
FFFF0A52
FFFF5DBA
FFFFCB9F
000053B5
000001BC
FFFF930B
0000000D
00017A73
000001D4
0000008B
FFFFBC8B
0000AA61
000107F9
00013637
00007040
FFFFFFA8
000176A8
00000226
FFFFE4B9
0000C517
00019A38
FFFF213F
0000396F
0000A13C
0000A050
FFFEFD61
FFFF8F1D
0000000F
00001B60
00013028
FFFF1FA5
000123D5
00013AF2
0000C705
0000EDDB
0000903F
00000147
00000F3B
00002CE4
00000921
FFFFF150
FFFF943E
FFFFC139
00007C6A
0000331F
00000BE8
000138B9
00005D6D
FFFFC4D2
000000A7
FFFFEA50
0000067F
00020A67
FFFFFBA1
000129AE
FFFFD8DD
000126E4
FFFFED1A
FFFF1108
FFFF2DD0
0000014B
00003931
FFFFFDDA
00013E3B
00000519
FFFFF7A6
000002EA
000001FA
00003E18
000021BE
00002419
00001BFB
00000EF9
00001342
FFFFFA2B
000016A7
000002CF
0000357C
00000199
FFFFFDF2
00001892
0000019C
00001E76
00003D7E
00002B44
000000BA
0000016C
000091EE
0000039D
00000F9D
FFFFFB2F
00001677
000004C2
00000CDB
00000A74
00000B9F
000004F6
FFFFE5AB
00003410
0000046C
00000663
000010BA
000033F3
000059E3
000004CB
00000821
FFFFBC20
000014A7
0000000D
00001323
00005C42
00001AF1
0000599A
00002021
00001F15
000015D2
FFFFF72A
00000A29
00000C89
00005316
00003ADD
0000025B
00000690
00000C26
00005EC9
000002EE
00000C7A
00003827
00000254
000000E6
FFFFFFE5
0000082A
00000000
0000055D
00000392
0000365A
000021CF
000041AF
0000018E
0000012E
00003A27
000025BB
FFFFFFDC
00001D71
0000296B
00003D1E
00002C05
00012A30
000006FA
000000C1
00000529
FFFFF980
000001C3
FFFFFD3E
FFFFFCDD
000002C0
00014A13
FFFFE74F
00000474
000013BA
00001346
00004214
0000033C
00002B1F
00002B6B
00004303
000026E6
FFFFFFDD
00002C44
00000D5D
00003A97
000039AB
0000027D
0000274B
FFFFFBD6
000041F7
000046FB
00001A55
FFFFFF14
00000ECB
0000175B
FFFFF846
00003A11
00002FF4
00002FE8
FFFFC479
00000807
00003747
FFFFFEB5
00003075
FFFFE3EB
FFFFFFA7
00000028
FFFF9AE2
0000BCA9
FFFF82AB
0000D72A
FFFFDB1F
00000C8C
0000A469
FFFFEF64
00013BFB
FFFF0D39
FFFFD80C
00011D78
000139AB
00011894
0001299D
00011D31
FFFF1838
00003066
00012CE8
000131D1
FFFFED52
00014921
000113C6
00012D5F
FFFFFAD2
FFFFBB2E
000144D8
0000EE58
000134CF
00011A73
FFFFF386
00012280
FFFF9A3F
FFFF6612
000130E4
00013016
00012CFD
00013A8A
0001623E
000115B8
000150E9
00014437
FFFFD64B
FFFF561D
00011732
FFFF6607
00000409
FFFF832A
0000ED20
FFFFD52E
000165C3
FFFF47F7
000141D5
00005767
0001468E
00012053
0000A2F8
FFFFFF67
00003B81
0000D679
FFFF5BF9
FFFF656D
000010D3
000146B1
00006DC3
000082E7
FFFF9CFC
0000C7BB
0001304E
000039D1
00011C15
000056CA
FFFFBFD5
00005BA9
00007685
00012556
00021DAD
FFFFDBE2
00011E3D
FFFF1E21
0001234A
FFFFC06B
FFFFED8A
00013FA3
000244C0
00013410
000120DF
FFFFB2F8
00008E4C
000153BC
0000339F
FFFFFD1D
FFFF95DF
0001254C
000120B1
FFFF2A16
00013FFB
FFFF8C69
00014C82
00000C91
FFFF1AF0
00013C2D
FFFFDED3
00018C1E
0000CDCB
0001304E
FFFF846E
FFFF2BEF
00013B0B
0001393B
00000D30
000124DC
FFFF2FA8
00013481
00013D96
FFFF2CE5
0001387F
0000E35F
FFFF142D
0000784B
00004E87
FFFFAB42
FFFF6472
000122A6
00012737
00012A8E
000128A8
00014B5C
FFFFFD2D
000048C9
FFFFD3A2
0000244E
FFFFEFCE
FFFFFB30
00004A5E
000025EE
FFFFA9D7
FFFFFD84
00000B57
FFFFF8D3
000040D8
FFFFF7B9
FFFFFC3F
0000181C
000005F6
00001407
00000313
FFFFF9E7
FFFFBF44
00004862
FFFFF02E
FFFFF8D6
FFFFE424
00000997
FFFFF64E
0000AE20
FFFFF957
FFFF9E09
FFFFF232
FFFFFC72
00001E04
FFFFDD17
00000DB3
FFFFF221
FFFFEE80
FFFF89C1
000066A0
000008AD
FFFFE8FE
FFFF6ACD
FFFFE7F4
FFFFF421
FFFFF9B5
FFFFE5DB
00001DB7
00003B3A
0000077E
FFFFF5CD
FFFFB571
0000036E
00001936
FFFFFB6A
FFFF36AC
FFFFFA63
00004201
0000100C
00000274
000006D5
00003E85
00001452
FFFFFA8D
FFFFF164
00004A95
FFFFF89A
0000095F
0000586A
FFFFE619
FFFFE475
00000354
FFFFFE5B
FFFFF79A
FFFFFD24
0000057B
00002FCD
FFFFFEDE
FFFFF37F
000014F5
00003955
0000406B
00000C60
FFFFCA6E
FFFF5F9C
000022B1
00001959
FFFFFA01
FFFFFBEA
FFFFF2D8
FFFFEBE3
00001399
FFFFDF82
FFFFC4D7
00000390
0000047E
FFFFFF7A
0000051F
FFFFBF75
00004E76
FFFFF798
000054D4
FFFFE963
FFFFFD1E
FFFFD857
FFFFFD91
000003A2
FFFFFAEF
000018E5
FFFFFD12
FFFFF30B
FFFFFB36
0000345F
FFFFF907
FFFFD4B3
00000F01
FFFFEC04
00004AA6
0000199A
FFFFEE01
FFFFFDAF
00006240
FFFFF790
00002F33
000030FE
000049E8
00003DB7
FFFFC5EE
FFFF04AF
FFFFFF3A
FFFFFD23
FFFFFDA5
FFFFFE49
00006D8A
00004A53
0000015F
00004740
000004C3
00003894
FFFF95F8
FFFFF599
00003295
FFFFFC78
00004909
FFFFF699
FFFFFF55
000020BF
000017B3
0000275D
000079F1
FFFFEF15
000032FE
00000097
000043E8
0000C404
FFFFA00A
FFFFE61D
FFFFF57F
FFFFB37B
FFFEEEBF
0000351F
FFFFEC85
FFFFE4AF
FFFFF9B0
0000053C
00000DF3
FFFFD8A3
FFFFF92A
FFFFBAA9
FFFFFEE9
00002232
FFFFF47D
00004A47
000035B2
FFFFFC48
00002431
0000805F
000021D6
00001199
FFFFFF5B
00005F3D
00001129
FFFFFEB0
000010B5
000060D5
FFFFE7BE
FFFFF332
00002043
00003F54
00001965
00000BEE
FFFFF333
FFFFC7A2
FFFFFC4E
FFFFD751
FFFFF44C
00002953
00004C31
FFFFE605
FFFFE483
00000441
FFFFFBBF
FFFF7B23
FFFFFBC7
00004F2A
000065D6
FFFFFCC4
00002D18
000016B4
FFFFF33F
FFFFE87E
00004F6D
00001452
FFFFF3FE
00001210
00004589
FFFFF0E4
00000170
000034C2
0000006E
00002584
00005149
0000006F
FFFFDB11
FFFEFBEC
FFFFEDBA
00004023
FFFFFEBD
0000029B
FFFFFB62
FFFFE76A
FFFFFF51
000008DF
000005AA
000006AC
000050A0
FFFFC1E8
FFFFF6BB
0000593B
FFFFFE8D
000023FE
00001F56
00000CAA
FFFFFA84
00000632
0000021C
00003D06
00000B9E
00002C34
FFFFF103
FFFF4DEB
00000677
00000312
FFFFFBA6
00002D9C
0000036C
00004DE5
000163B4
00012D6D
000173E5
000045AB
FFFFFDC8
00013F4D
FFFF1958
0001954F
FFFFBBB3
0000172E
0000313C
000007B1
FFFF91D9
000167F6
000133D5
FFFEC667
000058CC
FFFFCA04
FFFF0AED
00013F2F
0001768E
FFFFF42E
000095DF
0001230A
FFFFBBE9
FFFFA948
FFFFDC20
000032F2
00014D1A
FFFFFC81
000187A5
FFFFF58E
FFFF9B46
00003030
0001574F
FFFF90F8
00009867
00013CC6
FFFFA7C0
00015A56
000146B7
FFFF92D3
FFFFCF5F
00015FC0
00015254
00002552
00016088
00002FAD
0001613C
FFFF4E74
00013CB3
FFFFD396
FFFF6D66
FFFFF17F
0001505E
00013B6C
FFFEFFB7
FFFF4198
FFFFFE8A
000150AC
FFFF54AC
0001727C
00014A00
00015133
00012ABE
FFFFF456
FFFFADEC
00007D0B
000167F3
000140CB
00016414
00004A31
FFFFF5A7
000144FF
FFFFC2A3
FFFEEBA5
FFFF2D21
00014701
FFFFF2AD
000143E9
000149B5
00014C80
00016B97
00001DDE
000121F7
FFFFFBA8
00012868
FFFEE6D3
FFFF619E
000129F1
FFFF6AD6
00015FCC
000164EC
FFFFFF0C
FFFF9EF6
00001B2C
FFFF2DA1
00002D36
0001EBD5
FFFFD99A
00013295
0000423F
00014435
00000913
FFFF7476
FFFF7FDD
000118D8
FFFF94AA
FFFFF5A6
FFFFF392
FFFF8C8D
00011C7C
0001243D
000174D5
FFFEF0F7
00016957
FFFF803D
0001431C
00013769
FFFF7ECE
00005C57
FFFEF042
FFFEDB7A
FFFF17F9
FFFF505B
000146B3
00016830
FFFF7A61
00000969
00013C98
FFFF3B1E
00012BDB
FFFF426D
0001474C
FFFFEE94
FFFF9746
0001A887
FFFFF92E
00011DF5
00006EF2
FFFFF82C
FFFEAB8A
000142A0
FFFFB761
FFFFF842
00011114
000162AF
00013749
FFFF14E9
00014CBA
FFFEFC6E
00012218
FFFF7A4A
FFFF89BA
FFFF6026
FFFF01B9
00013CF7
00013AF3
000153E1
000143C1
00017358
00016693
FFFEDB64
00015C4D
FFFFC792
000141CF
000120E6
00010CC1
FFFF4F92
FFFFF3F0
000150D1
FFFF42D2
000112FB
00017117
FFFFFCB9
0001485B
00000DD5
FFFEF24D
FFFF392A
FFFFDA5E
00013144
FFFFD688
FFFF3FA3
00018DEA
FFFF9FA0
FFFFDBC2
FFFFC976
0000A81C
00013376
FFFF7A10
00016267
00015049
FFFFFB9D
FFFF4094
0000DAE4
00000DF8
000142EB
FFFFF5B5
000131C5
000129CA
FFFFD6E3
FFFFAA29
00014C36
FFFF2F7F
FFFFB53E
FFFF701F
0001425E
00002AC1
FFFFE90E
000142CF
000135FB
FFFFF609
FFFF63BD
FFFF996E
FFFF23CC
00014D2E
000179EB
00013B14
FFFF9BA5
0001416C
00014B60
FFFF4EBF
FFFF6826
00016BCE
00013907
00014E59
FFFF7BD2
00011C48
FFFF65D4
00014E15
FFFF858F
0001370D
FFFF9607
000074F9
00016CA9
FFFF1BFB
00013469
000126A7
00014910
000165BB
00013A25
FFFF4418
00015D40
00014CE1
00016D36
FFFFF2AE
FFFF5B69
00015863
00016CAD
FFFF658C
FFFF58E1
FFFF561C
00014705
0001302A
00028429
FFFF0C2F
FFFFF868
FFFFEDFF
000014C2
FFFFF379
FFFFF601
00001730
00001858
FFFFFFFB
FFFFE44A
00001CEA
000001D3
FFFFF796
00003F94
000062B1
FFFFFF76
FFFEFC12
FFFFF81F
FFFFC887
FFFFD66F
FFFFF1C0
FFFFFB9C
00000620
00000591
FFFFFC60
0000075A
FFFFFF68
000002D0
00001C76
000000F5
FFFFF213
FFFFDB8F
FFFFF512
00004BF0
00001E9A
00001803
00003BBB
000039FD
FFFFEE19
00001D72
FFFFF3D1
FFFFFC5E
000037D7
FFFFF86D
FFFFFE23
FFFFEF64
000038FD
0000003E
FFFFF316
000035D0
00000077
FFFFF29C
FFFFF8A9
00000003
00000DE0
FFFFFCCD
FFFFEC48
00003B6A
000023EF
FFFFE6E2
FFFFDCE3
FFFFF9E2
0000026D
FFFF6D66
000058E8
00005C65
FFFFF2D3
000001A0
00001198
000037C6
FFFFF53D
0000052A
FFFFF549
000035E7
00002FFC
00000E02
00000E3C
FFFFF7DD
FFFFFF3E
FFFFA4F1
FFFFCA23
0000036C
FFFFF3FD
FFFFEE9A
FFFFF624
FFFFFB84
FFFF9F5A
FFFFD637
00004CA9
00003185
FFFF030B
FFFF6144
FFFFEDC1
FFFFF57E
FFFFFB5E
00004539
00001DC4
FFFFE84F
00001909
0000216E
FFFFFAF7
0000265B
FFFFF628
00001C6F
FFFFE93E
00004558
00001B1F
FFFFE5B2
FFFEF2E9
FFFFFEB0
00001747
FFFFFB25
FFFFE0A6
00002D51
FFFFFA56
FFFFF79F
00000CDC
00002EFE
FFFFFB86
FFFF60D6
0000243D
0000114F
00002A96
FFFFFF22
00000AB9
FFFFF9C0
FFFFFDB9
00003829
FFFFD8D4
00002CF5
FFFFFB45
FFFFFD7A
0000258F
00009BE4
00003E27
0000078C
FFFFF163
000070E8
FFFFF7E2
FFFFFBC4
000004EB
0000199E
000018F7
FFFFFD73
FFFFFDF6
FFFFFF19
00000001
FFFFCF60
00003A61
FFFEE99A
FFFFFE8D
00008137
FFFFFFB5
00001BE6
00000EDD
000022B6
FFFFC653
000028D0
000031B6
FFFFF714
FFFF1FC0
000005FA
FFFFF968
FFFFBC06
000022C6
FFFFFF82
FFFFF065
FFFFF5B6
FFFF3CAA
FFFFE0DF
FFFFFA07
FFFFF4D2
0000187A
000015DA
FFFFFB0E
FFFFC1E3
FFFFF84B
FFFFFE9A
FFFECCFA
0000059A
00000195
FFFFF648
FFFEDC7B
FFFFF9F4
0000041F
FFFFFC5B
FFFFFD03
0000168B
FFFFFCC8
00000C48
0000020F
FFFFECD0
FFFFF520
FFFFF516
FFFFFC2E
00003452
FFFFFF12
000011FA
00001222
FFFFE079
00004993
0000017E
00000F3A
00003F26
FFFFF42B
0000082B
FFFFFD1C
000000E9
00003DD8
FFFFE964
FFFFFF90
000007C9
FFFFF924
FFFED166
00004457
00004053
00000981
00002FA6
FFFFEC7A
00000129
000032BD
FFFFFF0A
FFFFF921
FFFFFD56
00000E94
00001B86
00003255
FFFFFF9F
FFFFB592
00006270
FFFFFFBD
000000A8
FFFFFCEA
00003946
00002A0F
00002C6F
00000326
00001E52
000001CA
00000996
FFFFF75C
00002105
0000EFDC
00004EFF
FFFFFF9C
FFFFFFDD
00000502
FFFFFD57
FFFF0D74
00004938
0000303B
FFFFFF0C
00000F84
00001A7B
00002B8F
00004428
FFFF7428
FFFFF5C4
FFFFED44
FFFFFBF3
FFFFF298
000045AC
00004BE0
FFFFF6E8
FFFFEEB9
00000896
00002C3E
00001111
FFFFF7C5
FFFFF20E
FFFFFAFA
FFFFFB24
000007CA
00001861
FFFFFC61
00004BA8
00002D36
00000343
0000253D
FFFFD772
00004458
FFFFFA3C
FFFFFFD7
FFFFF7D3
000007FA
00000A30
00002546
FFFFF949
FFFFA5BC
00000093
0000017E
0000027E
FFFFFA79
0000309B
000046D9
FFFFBB59
000041BF
000011C9
00002B3B
FFFFF89E
000000AA
00000278
00000A3E
00001DFD
FFFFFF06
FFFFF142
FFFFFBF0
00001339
000005E2
FFFFFF52
FFFFFD6E
00002874
FFFFDCEA
00002264
000050ED
FFFFDECE
00000CFB
00000136
00002021
000005FE
00002CEF
00001852
FFFFE479
FFFFD458
FFFFF4EA
FFFFCC89
000037EA
00003CCA
FFFEE036
000014A0
000011B4
FFFFF9AF
00001E57
FFFFFB0B
FFFFFAAF
FFFFF736
000027AA
FFFFE330
FFFF95D9
FFFFEBB8
000083FA
0000190B
FFFF64B8
FFFFFF4E
00002CF4
FFFFED04
FFFFF2D7
00000F2D
00002C78
00000B87
0000401F
000007D3
FFFFEFC3
FFFFFDBE
000003BF
FFFFF724
00003497
00002CE8
FFFFFCDD
FFFFFD5D
00001511
000013FC
00003C0E
FFFFE33D
FFFFEE40
00002D5A
00000573
FFFFEDB0
FFFFFD9D
000004D7
0000250E
00003DEE
FFFFF6E7
FFFFFDF7
0000118F
FFFFFFF6
FFFFF5BD
FFFFFF51
FFFFF805
FFFFFCD5
00001396
FFFF4BD7
000007F9
FFFFFBAE
FFFFFD20
FFFFFF29
0000254F
FFFFF116
00001101
00000781
FFFFFAD7
00003AD3
FFFFF49F
000059AC
00003A36
00000225
000028BE
00000275
FFFFFE41
FFFFE618
00001A6B
000009DF
FFFFFFBF
000002C8
FFFFF92E
00000C10
FFFFFDE5
FFFFCBB6
FFFECAC5
000033AE
0000220F
FFFFDD9E
00000001
00000477
FFFF1ACA
FFFFF9AA
00002E8D
00004070
FFFFFD80
00005658
00002720
FFFFFEDE
FFFFFC63
FFFFCE31
00005457
FFFF5BD0
FFFF5B31
FFFFFC00
FFFFF970
000003F8
00005C33
FFFF8617
FFFFFDC9
00003AAB
00003231
FFFFFF4D
0000076B
FFFFC0FD
FFFFF20A
FFFFCF19
FFFEEE46
00004E46
FFFFF1F3
FFFFF29B
000007E3
FFFFE502
FFFFEE2D
00000FB7
0000075E
FFFFFC08
FFFFFD5D
FFFFF8AA
0000094A
0000009D
FFFED50F
00003331
00000E59
000002F7
FFFFFBA0
00003A27
00004452
00000E68
00006BFC
00001058
000032BB
FFFF9EBB
FFFFF6ED
000017E5
000044DE
FFFFA0DF
FFFFE5D9
FFFFFC0C
00000303
FFFF1EA6
0000168A
00000C06
FFFFF6BD
FFFFFE66
FFFFFCBE
FFFFF0A8
FFFFF252
0000429F
FFFFFC87
FFFFFD3F
00000123
000001C3
FFFFE165
00000BA5
000043ED
FFFFFEC8
FFFFFF73
FFFFEF43
FFFFFB59
FFFFF3D9
0000030B
FFFFCA75
00002A28
00000249
00001240
FFFFB6B8
FFFFFC53
00002B5A
000063D1
00000E8B
FFFFF0D7
FFFFF7B1
00000F16
FFFFFD77
00001006
FFFFF9D8
000056C4
FFFFEE19
0000157F
FFFFF93D
000022B8
0000606C
00006266
0000C0F9
FFFFB3C9
00004FE7
FFFF750A
FFFFCC3B
0000520A
00003ED3
0000104E
00006122
00005E86
FFFEF0F4
00003328
00005D5B
00002E36
00006BBC
FFFFBEA7
0000CF58
FFFFBB74
000052B2
FFFFB660
00003240
00005FC4
0000810E
000049DF
FFFF741B
00005CD0
00003EB5
FFFFC8C7
FFFFE60C
00008A5F
00005805
00002658
000041CB
000069A5
00006041
FFFEBBCC
00001188
FFFFCC14
0000D1D2
FFFFE5FB
00009680
0000C692
0000604A
FFFFC326
0000B912
FFFFE032
00005D35
FFFFE9FE
00004A68
FFFFE12C
00008A25
00006938
FFFF70BE
000058C6
00006DA4
00006AAE
00004D95
0000542A
FFFF3D2E
00002D9B
00003F3F
00004EF3
FFFFECD8
0000238E
00007F6F
FFFF1EC8
00007B06
00000894
000036B7
FFFF49D0
00007121
00005704
FFFF61EB
FFFFA021
00008730
0000C8F0
000048E8
0000476F
00007FA5
00004D59
0000368A
00007D24
FFFFEB88
FFFFDED6
000016B6
FFFEB7D5
FFFFBC9C
0000691F
00007596
00006FB7
00000F77
00008F47
0000875E
00004331
0000FA7C
FFFF73FA
000033F0
00001432
00003E26
000023F1
FFFF927B
000052AC
FFFFF4F6
00003CFB
000036DF
00000522
FFFEA50A
0000144A
FFFF9AB5
FFFECA6B
000002EA
FFFFCEC1
00002E84
0000A509
00008745
FFFFC0F1
00005175
0000A69D
FFFFFEBD
FFFF7F21
00004AEB
0000244D
000088FA
00005E3C
00008526
00004ED6
FFFF3B2D
FFFF7F1F
00005413
FFFFB945
FFFF4583
00009CFC
00003EB6
000006B6
00002BB6
0000091C
00000F19
FFFF8339
00005C09
00000402
00005A1A
0000347C
0000675F
0000AA6C
00002321
000002C9
FFFFB686
00006CF7
FFFFEC2C
00008E51
FFFF99CD
000058E4
0000B535
FFFF8C57
00003C1E
FFFFF099
00007A43
FFFF4545
FFFFACA5
000049ED
00006563
00004BE0
FFFFFB2A
00006D26
00009011
00008671
FFFFE0E7
FFFF4B92
0000B721
000050F8
FFFF6843
00004D0E
000037E9
FFFFDFEC
FFFF8F1C
FFFFFB71
FFFEF012
0000729C
FFFF37F3
00003137
000096B2
FFFF7661
FFFF0CB6
000015E1
00007030
00004104
FFFF7ECD
FFFFC704
00004C9E
FFFF4B8F
000041B8
000065DD
0000723B
00004220
00001031
0000550B
FFFFE892
00003F77
FFFFBA39
000054FF
0000BC8E
FFFFD87C
FFFFEA9E
00000F65
FFFFE0C8
0000052C
FFFFA76B
FFFFF407
0000173D
00000CFB
00003DE7
FFFFC155
000000C1
00007D8E
00005478
00003077
00006EDB
000019C7
FFFFDA27
000084A7
00001174
0000D2FC
000035A1
0000134D
00004579
000057A0
FFFFD87B
00006FD0
00005564
0000399F
FFFFABC2
00000543
FFFF734E
00005692
00003DA6
0000CCEB
000001FF
FFFFEB2A
00003318
0000ADCC
00003E99
00006835
0000484D
000023C6
00004E7C
00004D66
FFFFE5DF
000032D9
000058B4
FFFFD11B
0000455F
00000FE7
00006E94
FFFF9681
FFFFDF4D
00003C70
0000171A
00003CAB
FFFF5181
00005719
00002529
000028DA
FFFFE0B1
0000F5D5
00006BA7
00008A3C
00003776
00010F23
0000855B
000047EF
000011FC
00003FED
FFFFE98F
0000014C
00005B9C
FFFFBE9E
0000391C
00003F1B
FFFF499D
0000198E
00006ECE
000038F0
00006F94
00004BF4
0000B3A4
00000239
FFFFFE90
0000B06B
00001792
00006D41
FFFEDC2A
00005C83
0000650E
00008079
FFFFD394
00000C5C
FFFFC6B9
0000EC0E
000016CB
FFFF7866
FFFFD1A3
00004C70
FFFFCE1B
0000735C
FFFFE2DC
0000736F
0000668D
FFFFFC10
0000DEC8
0000117F
0000B47A
000050FA
0000432D
00006392
00000EE2
FFFFE861
00009554
00003AE2
FFFF5D2E
000029AB
00008442
000034AA
000035E3
00003F40
00002C8B
FFFFECFE
00002960
000001E5
00009429
00004D2C
00001FDF
00001DC2
00004CF3
00005DA9
00005ADB
FFFFF795
FFFF880A
00004FB0
0000122E
0000835C
FFFFD832
00003803
000094BE
000016EC
00002577
00005F39
00006717
FFFF19F8
00004380
00001371
FFFFFB12
00004D8E
0000A4DE
0000BEF2
FFFED64E
000033D4
00001D10
00002A33
00003A78
00004CD9
FFFF9729
0000A840
0000495A
0000418B
00004521
0000A41C
FFFFEB46
0000555C
00008B66
000062A2
00006186
00007AE8
00002898
00005E98
0000FBF2
000036AE
00006C46
FFFEE682
000073EF
00005795
0000189A
FFFF4FDB
0000753C
0000520F
00008D01
000043DD
FFFF6BC5
000028FF
00002984
000041E7
00005E82
00007D38
00003CAB
000043D2
FFFFB071
FFFFC727
00002B59
000002D8
00003946
00002BDB
000048F8
FFFF6A65
0000B93F
FFFF6D25
FFFFE656
000019F5
000053C2
00004FE2
FFFF276C
FFFFCA76
00000B42
0000CBF9
00004F8A
00009A5D
00002B06
00002169
FFFF48F7
FFFF6AA3
0000291E
00007D01
00009313
000031D8
00000962
000084D6
FFFFDCFC
000034B0
00008217
00005E0E
FFFF7DFC
00008B27
00011E97
00005D73
FFFFE74A
FFFFDA0D
0000593B
000060F6
00005200
0000404B
00009908
FFFF956D
00002B2D
000015D0
0000562A
0000535A
0000B5EE
00000AF2
FFFFF7CC
000071CE
00003AAE
00000189
000042CF
00000A08
FFFF903C
0000229F
00004F65
00001CCF
00000C96
00009CF1
000096E9
00006DFD
0000248C
000107FD
00006F29
FFFF6D96
FFFF45B6
00005821
00000C60
FFFF4089
FFFFFD63
FFFFFDB7
FFFF3999
FFFFC9D3
00003E6D
00007CCD
00006A7C
FFFFFA88
FFFF875D
0000CD34
00002DB5
00006A26
00007EC1
FFFFC45F
00003054
0000862A
00005408
00003341
00005E68
FFFEA5F7
FFFF1C35
00006B62
00008461
FFFFC466
00007968
FFFFDDDD
00003E55
FFFEF79B
0000BCB8
000028F8
00001205
000041A0
00005791
00007C0C
0000708E
0000349A
00004A4C
0000869F
00004304
FFFFE091
FFFFB3DD
FFFFB439
000082BF
00006F66
00002241
000054BC
00004405
FFFFE979
000009E8
00000C36
FFFFD7F2
00000764
0000B15C
00005C0C
00009F6F
00005531
000007E0
00004780
000064D0
00003D6E
FFFF15D2
0000932E
000038D5
00000547
00006CA5
000074C8
00003824
0000F285
FFFFA5D9
FFFFF173
00005C6C
0000A08E
FFFFA563
FFFF6568
FFFF0A5C
0000B88F
00008EA9
00005AC8
0000571C
0000A42B
000086D4
FFFFB40B
000003EE
00007BDC
FFFFF843
00008B07
FFFFD800
0000515B
00004F9A
0000AE59
00009C23
FFFF4D2B
FFFFD0AC
00004A70
00006E1B
000024A7
00005259
00003E01
FFFFAA06
FFFF0CD9
00008D99
000090C2
FFFFB25A
00005EEE
00004FE7
FFFF1467
0000114B
00001B38
000034AE
0000065C
0000561B
00007147
0000347E
000054E6
FFFFA4F1
00003019
000076CB
00001D2E
FFFF873F
FFFEED16
00007C6F
FFFF2BB0
00002C42
00008235
FFFFF775
00009243
FFFF7CA6
00006FD6
0000440D
00005850
00004698
FFFFDB6A
00004C35
0000245C
0000988D
000049C8
00003EBE
00005868
0000ABE9
FFFFC6E1
000030B1
00000434
00006D40
00002D0F
FFFF106D
FFFFB9FF
000018BE
00001FD3
FFFFE330
FFFF0ECB
0000A2CC
FFFF5B87
000036FF
0000673A
00005E2B
00004D27
0000C152
00006B35
00006462
FFFFF371
00003154
00008239
FFFFE7D7
0000AB68
0000701A
00005E66
000022FB
0000360B
FFFFEC66
00005026
FFFFEC3E
000031FD
0000366F
00005CD6
00002866
0000580E
00004B8F
0000D48D
000049F2
00008B8E
00012ABB
FFFFF866
00007ACB
FFFFEC4D
000050C4
FFFF0906
FFFF58A8
000072B8
0000A18B
FFFFB202
00003172
00005ED4
00006B0C
00003BAB
00009C72
000060CE
00002C11
0000BBFF
0000F320
000039ED
00007E21
FFFFD699
000055B9
0000303E
000024A1
0000274B
00003589
00003E71
FFFFE9BA
00006987
000042DD
00002654
00001BB8
00002AF2
00005A28
00006D7F
FFFFFA53
FFFEF8C3
000089AD
0000624D
000027AC
0000720E
00005CD6
00007C5D
0000584E
000064E9
FFFEDED1
00005A2B
0000827F
00005F3B
0000B94C
0000B969
0000226E
00000E09
FFFFB14F
000071F2
0000A760
00004765
00003A13
000030F2
00006E82
000050A0
00003644
00003B52
000095E4
FFFFBDE4
00005A80
00008EC9
00004FDE
0000AF12
00003983
0000883E
00001A45
00004559
000073DE
000061F5
FFFFE6CA
FFFEB826
00007453
00005B80
00005A50
000082AA
FFFED914
FFFFF1A8
00008071
00005CF4
00002932
000021F5
00008830
00003C52
00008669
FFFF5F98
000022BD
00003523
00009E2A
FFFEA02B
00002DC5
00007C58
FFFFFA9D
000040C9
00003EF6
00002607
FFFFEC56
000125A9
FFFFCF84
000003E8
000018A6
FFFF2297
000029E1
FFFF5C46
FFFFD43F
FFFFD42C
FFFF020D
0000A215
FFFFCB71
FFFFF412
FFFFDF7F
000038EC
FFFFE11A
FFFFB137
0000CE20
00008CDC
0000506E
00002CA4
FFFF77D1
000067F5
FFFFAF8D
00005B6F
00004F61
0000463A
00006BEE
00003B18
00003F7F
00003F9C
000061B0
00000FE5
0000518C
00004C10
FFFECDB8
0000ACA4
0000707E
0000811B
00001B14
00006730
00001A97
FFFF8F64
00001F95
0000A06F
00007219
00005A7F
0000914B
00004A72
000081BE
000077F5
FFFFF515
00009C1E
00003F01
000077BC
FFFFCC07
FFFECCD4
0000407E
00006730
0000194C
000014C8
00002265
FFFEFA12
000054AF
0000441B
0000BC17
FFFFC8FA
0000B3B4
00001648
00004475
0000600C
00007352
00004E70
0000AF38
00005A42
0000A028
00005650
00006BFA
00000E77
00008116
00009EDA
00004CFE
FFFFFD1F
FFFF0B28
0000C16E
00004D83
0000764C
FFFFE808
00001B11
0000691D
00006C96
FFFFB54C
FFFF8AF8
00001FAD
FFFEFA30
FFFFD419
00003748
FFFFED65
FFFFAA67
FFFEA887
00004E90
000073D7
FFFF5964
FFFFB98C
FFFFC168
FFFFF7B5
00007087
FFFF97BF
0000CFF8
FFFFCDFC
FFFFF611
00006067
00004DE6
FFFFFD5F
000035C0
00007479
00003AE9
000073A1
000063A0
000033B1
00004151
FFFFE092
000036A3
FFFFB7C4
FFFFE300
00007C75
00006632
000002F2
00018B1D
FFFFC940
000052BA
0000024F
FFFFF804
000003AD
00005DE4
000013F2
0000453D
00009023
FFFFE179
00004785
00008D03
000055FD
0000528F
00008458
00008D36
0000A190
0000344D
0000A66A
FFFF9690
FFFF7A8A
00007F51
FFFFBF30
0000C864
00004B76
FFFEB35C
0000819B
00007212
000055DB
00009019
00003947
FFFFE1C7
00003D21
00006BCC
00005B07
00004F10
000018B9
00008741
000052FE
00005655
FFFF1F4D
00000297
000079AB
FFFFF08F
FFFFFC8B
FFFEFC2D
00006AB3
FFFF825B
0000762F
00001DCB
00007222
000035D5
00012B96
0000C7C2
00002924
00007A5C
FFFFABCC
0000B84F
00001C60
00000CC2
FFFFC74D
0000589D
FFFEB945
FFFF7343
00004671
000045D0
00009170
0000773F
000015F4
FFFFC40B
00006DF2
FFFF4423
0000621D
FFFF6EC0
000079F2
00003B8A
00004612
00002944
FFFFF251
000028A9
00000A20
00004BC1
0000CDBC
FFFFBFAA
00005364
00007988
FFFF25F1
0000677E
FFFFDE21
0000B2D3
0000046B
0000770E
FFFF6CFC
FFFFF1A5
00008218
00000EDC
00006ACF
FFFFAEEF
0000551A
0000C1E4
000051E3
FFFFEBC2
000078F5
FFFEFA14
0000C9F0
0000AA5C
0001066C
00006EDE
FFFEE9DF
000099FA
00006754
0000983C
00003136
00001C86
00002D91
0000A84D
FFFFCF6B
0000427E
000011B7
FFFFC17A
00007014
00007821
0000108F
00007292
00000C14
FFFFD0D9
00005634
FFFFF1EF
0000A7D3
FFFFCA87
00002C12
FFFFA83F
00005462
0000EE4E
00010FE0
FFFF37D4
FFFFFF39
000077C8
000061DA
00003DC8
FFFEE40F
00004AED
FFFFA2C3
000053F7
0000251E
000015D9
00001F85
FFFFD11A
0000127D
000030EF
000084E3
FFFF3DF4
00004FBA
00008159
000056A0
00000FDA
000056BB
00003D64
0000CEC6
FFFFA166
0000748D
00005C59
00002C95
0000B444
00008236
0000867D
FFFF0746
000010B5
00006C51
0000037F
000042F1
FFFE8EAE
00001A21
00002B81
00004F1C
FFFF4DF8
FFFFACB6
00002D5F
000039F0
00001590
FFFF15EB
00008A4B
000028B5
0000D66E
00000358
00008716
0000603E
00004063
00005509
FFFEF905
00003055
00005522
000027D3
0000481F
000042C2
00004D11
FFFFDF3F
00010467
FFFEDD6D
00009E58
FFFFEE4F
FFFFE74E
000071CA
000065FC
00007D1F
00003710
00004054
FFFFCDD9
00003E71
00005B0B
0000391B
00004810
FFFF5663
000009FC
0000506B
00002503
FFFF9755
000074D3
0000923E
00009DBD
00005741
0000955D
0000839E
000039B8
000097BA
00005FAF
FFFFFB3B
FFFFC0F8
FFFFF9BB
00003EE7
FFFF62DE
00006AF8
000041AF
000073D1
0000690D
00002083
00007981
FFFEFE4F
FFFF4337
00002C1C
000039C1
00003A57
000010B2
FFFEFD86
00004B8B
00001E17
00004A51
0000A1CE
00008CFF
00007D12
FFFFA701
FFFEFC3B
FFFFDD81
00001E03
0000629C
00004328
0000300D
00008F57
00004629
0000AADE
00004FD2
00000EEF
00001DB3
FFFFEE68
00006419
00003B08
00009285
000046ED
0000B168
0000647A
00009509
0000A082
00003A9A
00005FE9
FFFFBB5D
000062E9
0000220B
00003B2D
FFFEF0FA
00006AF0
FFFF00F4
00006D62
00002468
0000C472
00004DF5
FFFFE0BD
00007AB1
00000D62
FFFF88E3
00002AD9
00000943
00003AE3
000020F8
FFFF539C
000046E0
FFFF0677
000006A3
00002C07
FFFFAD9E
00000FF0
00002600
00005FFC
00007206
00004361
00004939
0000195C
000069E3
000046D4
00008F0E
FFFFDFBF
FFFECE10
00007E64
00002DAA
FFFEF0B9
000026DA
00004EC3
FFFF3B03
000029E8
00003E44
00004856
FFFFA3BB
00000FCA
FFFFA95E
FFFF1A04
000019A6
000052E0
0000369E
00000317
0000D8FD
0000661A
0000244D
000059DD
FFFF2760
000040A1
00003EBF
FFFF67D8
00003DCB
00003D14
FFFF9E91
00007521
0000392D
00002246
00006B0B
FFFFB994
00005513
FFFF1157
000067C8
000092B0
FFFE6F43
0000610E
0000561E
0000340B
FFFFEFEC
FFFE7EAB
00000943
00003F36
000096B6
000046D9
FFFE9F13
FFFFAE83
0000629E
00005CAB
00006E15
000015DE
FFFE8A9C
00001FF1
000061A4
FFFF1A7F
0000B3BE
FFFFE80B
FFFFB3A2
00008748
0000467B
FFFFEA27
00007E55
00006E17
00006709
00004943
00005B6B
00004ABD
00006261
0000198E
FFFFBAB5
00000C2A
00005EFD
00008AC5
FFFEEBE6
000069CC
00005143
FFFEC1D4
000070EC
FFFEEB2D
000056FC
00002E08
FFFFF7BB
FFFEED48
FFFFC9D5
0000C16F
000017B0
0000A799
00007A1E
00001B3F
00006CDA
0000C8E3
00005D12
0000C687
0000243C
000037E1
00009D2F
0000531B
00002D1B
0000814B
00000058
0000758F
000031EB
FFFF035A
0000A12E
FFFFCB20
000038A1
000080A0
000086AE
FFFF491E
0000F2B3
00004F08
0000519D
00003D81
00003EC2
FFFEFA57
0000821D
00005F90
FFFFF7A8
FFFFEE81
FFFFDC49
00003747
FFFFFC8A
FFFEDEC2
00009D9C
FFFFF518
0000236F
00006F86
00008A29
00003A5B
00002AE5
000062D1
FFFFFC41
00003861
FFFFCF1D
FFFECD19
00004753
00003510
000077A3
000073F3
000023CE
FFFFFC58
FFFF1656
000061B7
FFFF7212
000037D8
000058FE
00004DA9
000061C3
FFFEF4FD
000022D8
00005AE6
00002D6C
000036F7
00006F9C
FFFEFB8C
000061EB
00003F45
FFFFB9BE
000066D0
00000DA4
000075B7
00007121
00006381
00001E42
FFFFEB83
FFFFD32F
FFFFDEEE
00006694
00002F9B
0000812D
FFFF9A0A
000029A3
00007276
00004310
0000740E
0000524B
00000D93
00005010
0000554A
00006CCA
0000540E
00002371
00002C64
00004E4E
000036F7
FFFF69D1
00001D6D
000057FE
FFFFF18C
FFFECF41
00008A7A
FFFF368F
00005DB3
00003803
FFFF9AC4
0000A258
00005F85
00002CB9
000061D9
00005394
000005C8
00004127
00006E96
FFFEF6A5
FFFEBF69
00006831
FFFEDC9F
FFFFB298
00004431
0000328C
FFFFD045
FFFFBA05
0000D218
00004AF1
000027EA
000046D7
000068CE
FFFFB825
00008FB9
FFFFF811
FFFFD1A0
FFFF2817
000072C3
00000486
00005AE0
FFFF1A7F
00005457
00005B41
000077CC
FFFFB16F
00007C83
00002320
FFFFC5D3
0000538D
00006C46
000047AA
00002602
0000CF34
FFFF86AB
00001C46
FFFEEB04
000015DB
000011EB
00001C93
00004D5B
FFFF8505
00004DB3
00005BFB
0000089A
00002B95
FFFF91D1
00007AA0
00005C8E
0000347D
FFFFBD12
000014F4
00004747
00003FA6
FFFFE4DA
000006B4
00001876
0000B8F1
00005209
00005A8C
0000667B
FFFFB805
FFFF3BC6
00003C23
00005970
00003967
00004C5C
00004A8C
FFFFE7B7
0000AB6A
00008179
FFFFE1B7
000044CE
00004AB1
000051DA
FFFFD7FA
FFFEF759
00006AE3
00001FF3
00003695
0000920E
FFFFE798
FFFF69C1
00003A72
000073B2
00005FDD
FFFFCAA6
000029A6
000027B2
0000A958
00009D83
FFFFA4D6
00003E2C
FFFF0F47
000074CB
000035B6
000056F1
00007A13
0000490B
FFFF27BC
FFFF7069
00002A34
000039ED
00007F09
00002FE8
FFFF5174
000044BA
FFFECD0C
00005BB6
000018C9
000032F2
000030BF
FFFFFD5E
00001143
0000177E
00007DEB
FFFFCA05
00005BE5
00003453
00003535
000037D0
FFFFAD50
00004738
FFFF62A2
00005311
FFFF0451
0000801D
000015BE
0000B9DE
00006ABD
000016F8
000049D6
00005AA4
FFFEAA8D
00002ACD
FFFFDE8A
0000869F
FFFFBCAE
0000B2D2
FFFF7981
FFFFEF5E
FFFED23C
0000C175
0001639D
FFFF7196
FFFFCE37
FFFF5A9E
0000C37F
FFFFA326
000149BD
00003F62
0000915C
FFFF959F
FFFF8DAE
00008C21
FFFF5F8C
00014F5A
0000C026
000011EE
00005E90
000110EE
00007EF6
0000DA5E
FFFEE791
0001611B
00009A01
FFFFF3AD
00004AFF
FFFFFE25
000127E8
FFFEF9BE
00002CB4
0000E149
0000569A
0000B75B
0000A34C
00018370
FFFF4112
000161A0
0000B315
0000655C
FFFF727A
000111B0
000071F7
00011A1F
0000CD50
00006D89
00011629
000073DB
0000C6E4
FFFF7314
00002317
0000B04F
FFFF23BE
00007859
0000FAA7
00003F54
000087FD
FFFF20EB
0000A11E
0000927D
0000FE02
0000B9BB
FFFFE01F
FFFF00AA
0000FDE9
FFFF3DF6
FFFF39A2
0000C990
0000E2CA
000070FA
FFFEC634
00007598
FFFF7D17
0000B72B
00003AA5
00000615
0000BB98
FFFFAEB6
FFFF1E90
FFFF3B0E
FFFFD663
000054FB
00009B49
0000F63B
00008025
00001237
FFFEF7B7
000024FB
0000ECEE
00005883
FFFEF0BC
000046B1
FFFF04D2
0000C31D
FFFFA0AE
00009BB2
00009E9B
FFFF4041
00001EE2
FFFEF8CB
0000AC74
0000080B
00015D35
FFFFEE09
0000AE65
000072D0
00001788
FFFFA9F1
FFFF2AD6
FFFF16D7
0001653C
FFFEB0D0
FFFECFAB
000096FD
00007EE6
00004DAF
000021C6
FFFF81C0
000125DA
0000982F
0000967F
0000DB9C
FFFFDF40
FFFFBE5F
0000DA7A
0000D3C5
FFFF059D
00002A26
00010620
0000A93B
FFFEFD49
00014529
FFFF0F37
00005E07
000027D0
00015AC4
00003AAF
00008772
FFFF90A7
000112D7
0000C8E8
000075F4
0000E7F9
0000F194
00005053
0000AF34
00003728
0000B95C
FFFF9AAB
000112CD
00006185
0000C9E9
FFFF7B2A
FFFF9DE5
FFFF13EF
0000547B
000089CD
0000BA0E
0000361B
00003A75
000085A2
00010778
00000896
FFFF7153
FFFFEDCC
000092D5
0000FDB1
0001741E
FFFF9B5A
FFFF1995
0000A653
000051FC
00005463
000125D0
FFFFA234
FFFF54E3
000102DD
00006FC7
FFFFB59F
00011438
FFFFC657
00003192
FFFF1A01
FFFEF3F9
FFFFAC0F
00006F03
0000B530
FFFF1B77
00004981
0000D5B4
00007663
FFFF7D90
000055D8
FFFF3B61
000118A3
FFFF0DAB
00009F96
0001349B
0000104B
FFFF3A28
0000A1AF
00007F72
FFFF8C6A
FFFECC94
FFFF5B07
0000F741
0000DA7C
FFFF28A5
0000CC10
0000A9C5
00008F37
0000802B
FFFF23AC
FFFEAEF8
00019368
000056BA
FFFF605E
0000F8C0
FFFED670
00010CB2
0000B3D2
0000222B
0000DCAC
FFFEB737
00002868
00019DE8
FFFF3A64
FFFF4824
FFFF1D9C
000095FD
0000DB62
FFFFD486
FFFEEC9D
FFFF41E0
0000C10B
000030DF
00009804
0000970A
00012A47
0000D5C4
FFFFD82E
0000C1E8
FFFF2410
FFFED7A5
FFFF257B
FFFFD302
0000B55D
0000D7B9
0000C4FB
00007346
000071A7
FFFEC9A1
FFFF364E
0000DEA1
0000E8D5
0000CF6B
000080DC
00007690
00008AFA
00001B23
0000C3DA
0000AD66
00006A15
00004137
FFFEF239
0000DA5C
0000AF07
0000A0CA
FFFF7C9E
0000CD96
0000E0D6
0000455B
00002CFB
00003BBC
00015747
0000AD59
FFFF8FF1
00011A09
00008EE7
FFFF7F74
FFFF4729
0000A502
FFFFF225
0000F7F2
000160D2
FFFFF57E
00002100
0000D8B9
FFFF41BF
00004354
FFFEF070
0001A16C
0001093E
00014CE8
000053A1
00002DF0
0000E574
FFFFBC46
FFFF0A65
0000CEEF
0000466A
0000189D
0000153C
00000E8C
00002136
FFFF25E0
00004FC0
000065F1
000167CA
FFFFEEAE
FFFFF659
FFFF2E94
00007D8C
0001149C
FFFFED2E
00005559
00006CD1
0000B9A1
00009DA7
000073F3
00012548
FFFFECE5
0000A9D9
00007E60
0000CC1E
0000AC3B
0000FF50
000099C2
FFFFA9A5
0001648E
000066B7
0000BF5F
FFFEFB01
00015D5A
0000DB1A
000086D6
00005CE4
0000AF13
0000AE21
00001430
FFFFD7D7
00000B8E
00007BED
000137CD
0000EF65
0000A9A6
0000B32E
0000E662
00011A93
FFFF6667
0000A488
0000EACF
00009805
0000304A
00010360
00008AA8
00010317
0000D09E
00009288
FFFF25AE
FFFFF390
00007C1F
0000C57E
00010885
00008EB4
0000F1A5
00003294
FFFFE566
0000BC13
FFFF6E9E
00011871
00006D2B
0001235E
FFFFAFCD
00013C4A
FFFF7853
000120B4
FFFE9369
0000BF2C
0000CB84
00016BF5
00008358
0000732B
FFFF9000
00007B64
00013A71
0000F980
0000DEED
000074D6
FFFFB3A0
0000FC83
0000EBEB
0000D449
0000F91D
FFFEF20D
000033EE
0000169A
0000B62E
FFFFBECD
FFFF4642
0000A9BF
FFFEFD4F
0000971B
0000C597
0000F8CC
00012407
0000F23D
FFFFFBAD
FFFF0D00
00004B03
0000C6F1
0000873D
0000B66E
0000D4C0
0000375E
FFFF2687
FFFFBBE0
00009417
0000BE1C
0001115B
FFFF49D5
0000DA08
00006578
00019DF8
00005922
FFFF830F
FFFF21ED
FFFF50C7
0000B063
FFFF25A8
0000D6A8
0000DC41
000034B3
000105E9
00008534
0000AA22
00002578
FFFF75D1
FFFF51FF
00003615
000098BC
0000B501
0001113A
00008D74
00003159
00001E57
00007F0B
0000F32F
00008E97
00004B2F
00009E7D
0000A5EF
0000C0B3
00011A76
FFFF1D76
000053F6
FFFFB7A0
0000EEAC
FFFF9EF2
0000C344
FFFF3CE2
0000C77F
FFFF4128
0000F255
FFFFB4D9
0000F5CA
FFFED9C7
0000BF99
FFFFED97
FFFFF54D
FFFF3EAE
FFFF83D9
0001099C
0000BC3A
0000992A
FFFFEC40
FFFF0674
FFFF0A2F
FFFF4D5E
000126CB
FFFF1693
FFFFAF11
000078FB
0000B0F4
FFFF96A6
00009CA8
0001253B
FFFF8381
00010ADF
00009B88
0000DB58
0000A773
00005130
0000C0BA
000110CF
FFFFF16B
00005224
FFFF5E2F
0000FA1F
FFFFA3E0
FFFFDB72
00000772
FFFF2967
00006325
00001A58
FFFF79C3
FFFFCBF4
FFFFC486
0001841D
00016315
000193B7
FFFF9588
00018AF1
000183D0
FFFFE028
FFFFE88A
00016B42
00016909
00016003
FFFEC74C
FFFFE969
FFFF954A
FFFF4733
00013E87
00017305
FFFF70B9
00015348
FFFF8B96
00016593
000185DF
FFFFA3E7
00017035
FFFF4109
000172E2
0001B28B
00002B59
00018DD8
FFFF7A90
FFFF9050
00012A9B
00018DB2
FFFF0990
0001B81A
FFFF6456
FFFFBEE0
FFFFD7C3
FFFFD419
FFFF81F5
FFFF58A3
000174FF
FFFF42DC
00017BD2
00014C7E
000166C4
FFFF7F19
0000BBF4
FFFF8E1C
FFFFD004
FFFFADD9
FFFF91C5
00017F50
00019FD7
FFFF6224
FFFF8042
FFFFAA10
000082D1
FFFEE635
0000F989
FFFF0D66
FFFFD096
FFFEE1B4
FFFF2171
000176DB
00016610
00016447
FFFFB5D1
000194B5
0001691F
000164E0
00016B42
FFFFC830
FFFF872E
FFFFB6E9
FFFFC810
00017D28
FFFFFA79
FFFF59BB
FFFF64FE
0001C041
000175EA
FFFF3092
00008F74
00018B3E
FFFEDADA
FFFFF729
00019321
0000D285
FFFF4A29
00018DC7
0000775B
00017CD4
00016206
FFFF330B
000105AA
00006C0A
000140C1
00016D79
000178D2
000177EB
FFFFC9CF
00009A9A
FFFFA922
0001764E
00017986
000168B3
FFFF9101
00017F37
FFFFC8CE
0001590A
FFFEEEA1
00017CA4
00018AD7
FFFF616E
00018C2B
FFFFCB96
FFFF8FE5
FFFFB109
FFFF2D03
FFFF96EA
FFFF5AAC
0001773B
00016CBC
000180BA
00018F4D
00016A5A
FFFF736B
FFFF7FF9
FFFF8875
0001B61E
FFFF455F
FFFECD21
00018855
00018197
000175D2
FFFFCF5F
00019EA0
FFFF1BA9
FFFF3D72
FFFEF6AF
FFFFAD52
FFFFAD2C
FFFEA8FF
00016647
00019E01
FFFF60FE
FFFF8560
FFFFCD94
FFFEECD3
FFFF6548
00015BE5
FFFF2399
00017D39
00018EA3
000130A8
0001650C
00017C21
FFFF7366
FFFF0CDD
FFFF6E8C
00016B2B
FFFF7280
FFFFA991
FFFF255B
000148C4
00019010
FFFF1DC5
00014F65
000169E0
0001694B
0001BC88
00002A99
FFFF3E3C
000165C0
FFFF96B0
FFFF9973
000174D7
FFFEF1B1
00017B6E
00001A96
FFFF74AC
00016DA5
FFFF7557
FFFFCC03
00019285
0000CABF
00015AF7
00017A4A
00019C38
0001C42A
FFFF4BCC
FFFF1D0F
FFFEEDBB
00016593
FFFF7CFE
00018849
00016F03
00000E35
FFFF3AD6
00015641
0001483F
FFFF2ADA
FFFF3084
000181F1
00019FB1
00015CE4
FFFFA22B
0000E244
00016802
00017343
00017B41
00016952
FFFF7099
000181D7
FFFFB87A
00015E0F
FFFFB5D5
FFFF62F7
FFFFB975
FFFF1E66
FFFF9DFE
00015617
0001C08F
00017060
FFFF24B5
FFFFA5A9
FFFF5214
00000665
FFFEFE20
FFFEA509
00007206
FFFF8C23
00018D2E
0000B2E5
FFFFFACC
FFFF3E2C
00016BD3
00015F18
0000AEFB
00015F1E
00015BC9
FFFFAC82
0001814F
FFFFA4EB
FFFF95B2
00018419
FFFF8E58
FFFFEABC
00017DD6
00017FD9
0001640D
FFFFB61D
FFFFF6C8
FFFFF490
FFFFF00A
00009964
00018F84
00016B35
000162C6
000163F7
00016C2F
00017142
000171AF
00014D91
FFFFEDB5
FFFFED81
00016F7E
000176FC
FFFF2F95
FFFF6ED9
00017C75
FFFF1E7C
00014D30
0001785B
FFFFDE72
FFFF0D9D
0000CCA8
FFFF8621
FFFED8C3
FFFFAA7E
FFFFBF99
FFFFDDA4
000164F8
00001837
FFFFD275
FFFF4FF6
FFFFBE20
0001B7FC
00018440
FFFECD38
00011D4A
FFFF5310
00018AB8
000174ED
00017270
00017F8B
00002594
00016E9C
00015CFB
FFFFEBB0
FFFF117F
00009CE5
FFFF7936
00016863
00017305
00015E69
0000A076
00016675
00004C03
000163BF
0001964E
FFFF94C5
FFFFBAB7
00005E04
FFFF9517
FFFF7AB9
FFFF17B0
000157E3
FFFF434D
00016C82
00005CDA
FFFF7DD1
0001803C
FFFF60E5
00016624
0000FF14
000027DC
0001AF81
FFFF45EC
FFFFB674
FFFF5594
FFFF233A
00016DC3
FFFFF4F1
0001637D
FFFFB19F
FFFFB86F
00015C6C
FFFEECB0
FFFEFF99
FFFF6322
FFFECC76
FFFEF976
FFFF26B0
000046DB
00017A36
FFFF9E7D
FFFF4A72
FFFFA086
FFFFB91A
FFFF7C7B
00018FE4
FFFF5118
00015C5F
000172F9
00015B0C
FFFF362B
0000646B
FFFFAECF
000172E6
000070D6
FFFEF705
FFFF9BFD
FFFFCB74
FFFFE66D
0001A0BA
FFFF7605
FFFF4987
00017AA8
FFFF4455
00016163
FFFF3C68
00014D4D
0001734B
FFFF332B
0001892B
FFFFB9A4
0001B9AE
00017EEB
FFFF7F49
FFFF3A88
000185BC
000169A2
FFFFD587
0000EC9D
00018999
0000E620
0001AD4E
000081FF
FFFFC517
FFFF7757
0001B349
FFFF91C4
0001799A
00019F84
FFFF6E31
000171A8
FFFF9D66
0000055C
00016840
FFFED59D
FFFF29BB
0000AC12
00016344
000180AA
FFFEB8CE
00016F0E
FFFF33B1
0001824F
FFFFC944
FFFFA2AC
FFFFAF24
00001D4D
FFFFA4C6
FFFF81B7
00007719
0001328F
FFFEE636
FFFEED56
00016991
FFFF6FB9
FFFF7CEA
000187F1
0001BC75
0001915B
FFFEA216
00016C39
FFFF2793
FFFFA99C
FFFF27C4
000187A6
FFFF3FDA
0000385A
00017B53
00019B6A
FFFF4FEF
FFFFD5A0
FFFEBD7C
00018415
FFFFB654
0001549D
0001753C
00017EAE
FFFF9D92
000138D6
000186DC
00016F1E
00019290
00018E60
00016E32
00015531
FFFEFF4B
FFFFE160
0001676E
00016940
00016664
FFFF88FF
0001AFAC
00017FAA
FFFFFCA8
FFFEE06F
00017D4E
FFFFBF5C
000161BD
FFFFC47A
000181ED
FFFF5D22
00017B4D
FFFF606E
0001767B
FFFFD574
FFFFCDD7
FFFFDB6C
00015F6A
0001588B
00018FC5
000183F5
0001692D
FFFEC7B4
FFFF75B6
0000B279
FFFFA028
000167BB
000175AB
FFFEB07A
00019155
000044B1
00016BCA
FFFF1A36
00017233
FFFF9B1F
0000C6A2
00018093
FFFF89B4
FFFF6D84
FFFFCE25
FFFFEF14
00017B2D
000180ED
00017F3A
FFFF7D2C
FFFFC6C6
000176CF
FFFFB40E
FFFFCDF2
FFFFF7FC
FFFF8475
00000E4C
FFFEDDA9
FFFF1F51
FFFE8A42
FFFEB62F
FFFEACDD
0001984A
FFFEA0E4
FFFEA9FE
FFFEBEC4
FFFFBF44
00019BAF
FFFEEA86
FFFEDC95
00017450
FFFED5A5
FFFEC1F5
0001BB5D
0000C1B0
0001B561
FFFFAA7D
FFFED807
FFFEAD44
FFFFE3D5
0001AC83
0001BB30
FFFEF050
0001B3F6
FFFEC9A8
00007DD8
00018777
0001B50B
00017659
00019ED5
FFFEA45F
0001A619
FFFED975
FFFECA0E
FFFEAC81
0001D35C
FFFECDFB
0001AE5E
FFFFA197
FFFFD2AD
FFFFB16D
0001C916
0001D04D
FFFEFCC4
0000B99E
FFFE9CC1
FFFFA881
00019C64
0001D394
FFFEA1F4
FFFEB1A5
0001D40F
FFFE9B06
FFFEAA60
000027A3
0001B2DA
FFFF8CF2
FFFECB3F
FFFEB593
0001A566
FFFEBA53
0001E3B7
FFFFC8F5
FFFEC909
FFFEEE77
FFFFEE96
0001B572
FFFEA1E3
FFFEABC9
FFFFC6CC
00002391
0001BF7D
FFFE9745
FFFFD7BE
00001192
FFFE99D3
FFFEF559
FFFEB50A
FFFFA83D
FFFFB6F0
FFFFBC75
FFFF9DE6
0001DB8F
000197ED
FFFEF57E
0001C6EF
FFFEB051
FFFED69B
0001C4FB
0001B6E3
00007593
0001C9AE
FFFEA4C7
00015E68
0001C39E
00018733
FFFE8DBB
FFFED518
FFFEF5CF
0001B067
FFFFC16A
0001F554
FFFFBD9E
FFFFB77C
FFFFA66C
FFFFBF98
FFFEC3BE
FFFE95E1
FFFECD79
0001976A
FFFEC949
FFFEA537
0001B69E
0001B49E
00009EB3
00007251
0001D46C
FFFEC4AA
FFFEAE33
FFFEC741
FFFFFFBE
FFFEBD03
FFFED44D
FFFFE5F7
FFFEC51F
FFFEB66A
0001D8A4
FFFEC66A
FFFFB176
FFFE91FD
FFFFD68D
FFFE9737
FFFFAA69
00014189
FFFE9D1A
FFFFAB62
FFFED542
FFFEAC5B
FFFF76DD
0001AB2E
000164C5
FFFF9381
0001A5BA
FFFFDBCD
FFFFD386
0001BF10
00017771
FFFEF598
FFFEC40F
00002FF9
FFFFC416
FFFFC426
FFFFC878
FFFFCF2F
0001D2D0
FFFEB403
000023F0
FFFEACF3
FFFF8E85
FFFEBEE4
FFFFDFC8
0001B9C5
FFFFCAA2
FFFFED8B
0001C558
FFFEC2CC
FFFEACBD
000115EB
FFFFA908
FFFEC364
FFFE9868
FFFEC7B2
00005724
FFFEC9C1
FFFEEEC9
0001BCD3
FFFED4C1
FFFFE216
00010642
0000080A
FFFEC311
FFFE9FE1
FFFFF015
FFFE976B
FFFEBCAD
0001ABED
FFFFD0E8
FFFEDBCB
FFFEA6DD
0001AB48
0001DFCD
FFFFD400
FFFFA73E
00009363
FFFEF819
FFFEA0B4
000194CF
00019696
00020F35
FFFFB474
FFFFACD7
FFFEECA5
FFFEBE67
FFFFC17D
00018A94
000190FF
0001DAD6
0001F693
FFFFE20A
FFFFA227
FFFFD959
0001710D
00018F0C
00006CEC
FFFEDFEA
FFFEE2FF
00017CBD
0001D3E3
0001C8AB
0001D16A
FFFFA70D
FFFFB95F
FFFFC710
0000E8BB
0001DA87
000151FC
FFFEA85D
0001C45D
FFFFCEA4
FFFE859D
0001DD18
0001D5CF
FFFFFFB8
FFFEAC58
0000A7D4
FFFED9EC
FFFED793
0000C8D6
FFFFB594
FFFEB6B5
0001AD9B
FFFEC969
0001A88A
00018DAF
0001C525
FFFFDE82
000089CD
00019005
00019988
FFFE88EE
FFFFF477
00014F4E
0001BBC1
FFFEC22F
FFFE8061
0001A98E
FFFEBDC2
0001BADD
FFFEB945
0001C645
FFFEA795
000050EE
00019162
FFFE9FB3
0001B55E
FFFFF38F
FFFECEEA
00002FCE
FFFED8EE
FFFE8DF8
000162E2
0001DEE0
FFFFE0E0
00018E83
0001E7C3
FFFEC03D
FFFEA21D
0001E446
FFFECAEA
FFFFDD6D
FFFEB398
FFFEFAA9
FFFEB905
FFFED2D9
FFFEB953
00007333
0001C8FA
FFFFCF4B
FFFFD0F2
FFFFDFBE
0001DDCE
FFFF0FAC
FFFEC682
FFFEA009
0001CFC5
FFFEC579
0000BD5E
FFFF990F
FFFFD91F
FFFEF283
FFFF7550
FFFE9F07
FFFEC39F
FFFFA7A4
FFFEE777
0001C1C5
FFFF1008
FFFF9BCD
FFFEDC83
0001B725
0001A70E
FFFEC003
FFFFC5A6
FFFF966D
0001C633
FFFFBDEF
FFFEDFC8
0001C901
FFFFDB80
0001B350
FFFED155
0001AC2D
FFFED26E
FFFFA96A
FFFEA611
FFFEC0BE
0001A3A2
00004D2B
FFFEA039
0001B0BF
00006767
0001C99D
FFFEBCB5
FFFEB66B
FFFEA5BF
0001A23F
0001973A
FFFEA7B8
FFFEABDC
FFFFE24E
00019F7C
FFFED642
FFFFD177
0001B6CB
0001A2E3
FFFED2A4
0000F8E4
FFFEAF8C
00015245
0001BFA2
FFFEA24D
0001B0DA
FFFEA243
00015DFB
0001F45C
FFFE923E
FFFED81E
00014247
FFFEAA8F
0000403A
FFFFE396
0001BB75
FFFEB86A
0001B091
FFFEE860
FFFFE54B
FFFEB1AD
0001A68F
FFFEA488
00019A78
FFFEED92
00007422
FFFED9A3
0001C196
FFFFD6CC
FFFEA327
FFFFC222
000002B1
FFFED859
00014B19
FFFF9D12
00019B79
FFFFE5D6
FFFED17E
FFFFAABB
FFFEA63E
00002C69
0001BBF7
FFFE9A68
0001A34D
0001BA70
FFFEB991
0001B512
FFFFD966
FFFEC97E
FFFECDA5
FFFFE530
FFFEC126
00005F50
FFFEC3CA
0001A1EF
FFFFD06B
FFFECBFA
FFFFACF2
FFFEE160
FFFEE6DC
0001C634
FFFEBC6C
FFFFCB7D
FFFEAA51
0001B9CF
FFFFD727
0001BC3E
00004373
FFFFD4BC
0001A149
FFFFBF2F
FFFF07A5
0001888B
FFFEB06D
FFFE939E
000076C5
0001BF31
0001B2E1
FFFEFFAE
FFFFA81A
FFFFBE41
FFFFDA07
FFFEC7C8
FFFEFEAD
00012FE4
FFFFDCC1
FFFED479
FFFEA65F
FFFF1DB5
FFFEBBCE
FFFE9F88
0001C888
00008DB2
FFFFCA2E
FFFFB7DA
FFFF0200
0001E1D5
FFFEE5E9
FFFFC69D
0001C51C
0001B36F
0000584A
0001B3C4
00011247
FFFEA2EC
0001CE8B
0001C160
FFFFC4EE
FFFEA9D0
FFFEB831
0001B960
0001EC7B
FFFEFF81
FFFFAA3C
000195A7
FFFF0277
000169A9
FFFFE1CB
FFFEA12F
FFFEB510
00018AB0
000178C1
FFFEC22A
00016516
FFFFE23B
FFFEC3A1
FFFFEA56
FFFFBE8B
FFFEC95B
FFFFA4B9
0001D212
FFFFB547
0001C054
FFFFE077
FFFEAC06
0001C785
FFFEEC26
0001C3A5
FFFE8D08
FFFEBE2F
0002077B
FFFEE8DA
0001B10E
0001C9C4
FFFEB4D3
0000859C
FFFFDFB3
0001BA62
FFFFED4F
FFFFA4EC
FFFEA7E6
FFFFF40E
FFFEB215
00019CF5
FFFFAFF6
00004B3F
0001EBB9
FFFFDC9D
0001D805
FFFF90CA
0001B013
FFFFEC6F
0001DF37
0001A777
0001BDF9
0001D2BD
FFFECFD6
FFFEAD74
FFFFEA68
FFFECB09
0001B0A9
FFFFE97F
0001C915
FFFFAED6
0001B732
FFFEB1C7
FFFEF132
FFFEDC65
FFFF943A
0001862C
00002C53
FFFEB38A
FFFFEAFA
FFFFCF04
FFFEE805
00019A71
FFFFBF26
FFFEB2C0
FFFED0BB
FFFFED08
FFFFA15C
0001A1C1
FFFECCB8
00000D90
FFFEE212
00018C0B
FFFFC354
0000ED29
FFFEC345
FFFE9DE2
FFFEA6CA
0001A463
FFFFDF37
000179EE
FFFF400C
FFFEC9DF
00019556
0001B254
FFFFCC76
0001C24A
FFFEC57D
FFFEBFE6
FFFFBF0D
FFFF1717
FFFFDE07
FFFEC101
FFFFD686
00009AB1
FFFEEFEA
0001A8AB
FFFEB2C0
0001A453
FFFEC02C
FFFFBEC3
FFFFD94B
00017309
0001B5D1
0001D6C5
0000BA4D
FFFEA5E8
FFFFD659
00005DF7
0001722B
FFFEC875
FFFF9905
FFFEC360
0001BAA0
FFFFBBF7
FFFEBE3B
0001C358
FFFFD752
0001A12D
0001FD27
0001D3E0
0001A144
FFFFBE72
FFFFB995
FFFFDA96
000164C8
FFFEBC59
0001CB64
0001C170
00011B3A
FFFFDF17
0001B503
0001BC16
FFFEAEBA
FFFF048A
0001830A
FFFEAA5A
00000020
0001B4B2
000197A0
FFFEE031
0001C3E0
0001A95E
0001BDE3
FFFEED1D
0001BF39
FFFEAEB2
0000DB91
0001A4B0
FFFECAF0
0001EC94
FFFE8CF9
FFFEB671
FFFFE312
FFFED69F
00019095
0001A8FE
000196CC
FFFFDFA7
FFFFB27A
00019DF2
0001C0A8
FFFE916D
0001AB5C
0000320C
FFFECC67
0001C629
0001547D
0001A05B
0001B90E
FFFFC756
FFFED494
FFFEAFF0
FFFFCE31
0001A187
FFFEB8C8
FFFFA15B
FFFE9C15
0001BA0C
FFFEC2CF
0001C4C8
0001C426
FFFEEB1F
FFFF8419
FFFEA3D0
FFFED05F
FFFFEB29
FFFFB07E
FFFFDC89
FFFE8181
FFFEE18A
0001319B
FFFF937F
FFFFA999
0001B256
FFFEE583
0001D49B
FFFFC850
0001ED5E
000037ED
FFFEAA5A
FFFEA399
FFFEA5C3
FFFEA32E
FFFE9C3D
FFFED49F
FFFECB9E
0001A1A7
FFFFD59E
0001B959
0001B7F3
0001DA1D
FFFFE005
FFFEAEB2
FFFEA9E3
0001A5F1
FFFEF09E
FFFFF305
FFFEE2EE
FFFF9C28
0001B8A7
0001C582
FFFEC6D7
FFFED2C3
0001B2E2
FFFEFC81
00003585
0001995A
FFFEC32E
FFFEEFE9
0001C039
00018AAB
FFFFA314
FFFEFFF0
0001B146
FFFFBB5F
0001B631
0001DE25
FFFEB2FB
FFFFC7EB
FFFEEA28
FFFEE6B6
0001AF0F
FFFF911B
0001B907
FFFEAF22
FFFED91A
FFFFAC13
00018B4B
00020052
000188F3
FFFEA561
FFFFEF04
0001FC14
FFFEC9A7
FFFF00F0
FFFFEB1C
FFFF00CE
FFFEBE37
FFFFE7F7
0001C75C
FFFF9F72
0001BF54
0001C283
FFFEC103
FFFEB38A
FFFE9590
0001C426
FFFFA99F
FFFEBA3A
FFFFA5D2
FFFEC051
0000C295
FFFEFB61
FFFEA9D9
FFFEF744
00019493
FFFFDE34
FFFFBF73
FFFF91AE
FFFE9B93
00019166
FFFFBE51
0001A72F
FFFED6AE
FFFEB6B1
FFFFC960
0001CB24
FFFFB666
00018F52
0001A8E2
FFFEBFB3
0001A89C
0001B8E4
0001A0F5
0001B075
FFFEB51A
00018FD4
FFFECBE4
FFFFF1F5
FFFEB32D
0001BB9B
000138C1
FFFEAA21
FFFEDBB9
FFFED890
FFFFF5F9
0001E5A1
0001854A
000013EF
FFFFCFD2
0001BEE1
0001CB8B
FFFED9B5
0001CADB
0001BA0E
0001A9E2
FFFEA3DE
FFFED145
FFFEE177
0000B8BF
FFFFB1CF
FFFF84E5
FFFFD164
00017E9B
0001EEB8
FFFEAD56
FFFFC97B
0001C968
FFFFAFA5
0001A891
FFFFAC51
00001A7C
FFFEBDBB
FFFEF301
0001B1F2
FFFFBF9B
000000C2
FFFFE61B
FFFEA398
0001ACB0
FFFEA6A2
0001B66E
FFFED75B
0001A214
FFFEBB76
FFFEEE04
FFFEAD43
FFFFE2D4
FFFF90A5
0001B287
00019CF0
FFFECD0C
FFFFE235
FFFEA107
00018342
00014D62
FFFF9E85
FFFFA393
FFFED52F
FFFEBB9B
00018F80
0001CB11
FFFFC722
0000FDFD
FFFED7C8
FFFEA4DC
FFFED47D
FFFEA1D1
FFFEB39F
00000BF9
FFFEA44F
FFFEB57A
FFFEAA4D
0001ABD2
0001B0AC
0001DF82
000191E1
FFFEBECF
FFFFF4A1
FFFEDA04
FFFFDDA5
FFFF11D0
0001B993
0001FA12
FFFED275
FFFFB061
0001DE4E
FFFECDCD
0001FAE8
0001B75D
FFFFBE5F
0001E7A3
0001CE67
FFFEAFCF
0001EC43
FFFEAD21
0001C484
FFFED692
00016759
0001B67E
0001C053
FFFFB1AD
0001C0D9
FFFFB9AF
0001F157
FFFFBE85
0001A69F
FFFEF5AB
000168EA
FFFFDEB0
FFFFEBCF
FFFE8617
FFFECD29
FFFE9F73
FFFFA6A5
FFFEC12B
FFFEBB54
FFFF1C50
FFFE96DC
000140D0
0001ACA9
FFFFA58D
FFFEEE4F
FFFEAB6D
000066EF
0001A7EC
0001B139
0000BAF4
FFFEC528
00019C5E
0001C5BC
FFFFE45B
000085C2
FFFFBDC1
FFFEE53E
FFFFE839
0001A5D1
FFFEC3CC
FFFF930E
00000B4A
0001C13B
FFFEA387
FFFEBEB7
FFFF999A
00002F3F
00000F9E
0001C87D
FFFFF2D8
FFFFEAEC
FFFFB4CD
FFFFED6B
0001A455
0001BDF5
0001C310
FFFE941A
FFFFA3D6
FFFFC127
0001C291
0000E34B
FFFEC201
00018B9F
00009634
000068E9
FFFEA7AD
FFFEBEA4
0001E21E
FFFFDA1E
FFFEA48B
FFFEB764
000180EF
FFFEDD7E
FFFEC8C2
FFFECDF5
FFFF0BA6
FFFEA814
FFFEE344
FFFF0804
FFFEBDFC
FFFEB7A6
FFFFDF46
0001D2F3
0001A0FF
000065E2
0001B1F3
FFFFE0D0
FFFEA5CE
FFFE9F16
00018A0C
FFFEEE56
FFFFA79B
FFFEBC37
FFFF9319
0001C0DB
FFFEB8C8
0001B1B1
FFFE9B4E
FFFEBDC5
0001955E
FFFFA34B
FFFFA19C
FFFFA66A
0001C273
FFFED25C
0001B3D6
0001B8A3
FFFE9267
0001D98A
00005DF2
FFFFB3EE
FFFEF656
FFFFD95A
0001997D
FFFECF96
FFFFD1DD
FFFF9C47
0001FA93
FFFF87E9
FFFECFF4
FFFEBFD4
FFFE8C8C
FFFFA205
FFFEBFE7
0001B76C
0001C3BC
FFFE844E
FFFFDCC9
0001BE94
00017384
0001BF58
0000849A
FFFFA340
FFFEA441
FFFF952D
0001B1B1
FFFE9225
FFFEE684
0001D513
FFFEE0B6
0001B25B
0001A8EE
00017DD8
0001973E
FFFFD937
FFFEDD5E
FFFEAE06
0001A4E9
FFFEFA9D
FFFE9CB5
0001B852
00016D18
0000036A
FFFFCE30
