FFFFFFF9
FFFFFFBF
00000012
FFFFFF8D
FFFFFFAB
FFFFFFC5
FFFFFF84
FFFFFF81
FFFFFF95
FFFFFFF0
00000010
FFFFFFE1
FFFFFFDC
0000007F
00000011
00000009
FFFFFFE1
FFFFFFF8
00000002
FFFFFFFD
00000001
00000004
FFFFFF8A
00000003
FFFFFFF9
0000007F
FFFFFFF7
FFFFFFF1
FFFFFFF1
FFFFFFEB
FFFFFFBF
FFFFFFBE
FFFFFFFF
0000007F
0000001C
00000004
0000002D
FFFFFFFE
FFFFFFFA
00000041
FFFFFFDA
FFFFFF9C
0000007F
00000041
FFFFFFE9
00000013
FFFFFFEA
0000002D
00000022
FFFFFF81
FFFFFFD2
FFFFFFFA
00000022
00000011
00000005
00000017
FFFFFFFD
FFFFFFFB
FFFFFF81
0000001A
00000003
00000017
FFFFFFFB
FFFFFFE6
0000001B
FFFFFFD2
FFFFFFE8
0000007F
00000021
00000008
FFFFFFCA
FFFFFFF1
FFFFFF81
FFFFFF8F
FFFFFF8E
FFFFFF90
FFFFFF90
FFFFFF83
FFFFFF9C
FFFFFFB9
FFFFFF99
FFFFFFD5
0000001C
FFFFFFFA
0000000A
FFFFFF98
FFFFFF81
FFFFFFF3
FFFFFFD4
FFFFFFFD
FFFFFFFC
FFFFFFE3
FFFFFFFC
00000008
0000007F
0000001B
FFFFFFFC
FFFFFFE2
00000000
FFFFFFCB
00000043
00000050
FFFFFFD5
0000007F
00000026
0000003F
FFFFFFEA
00000008
00000008
FFFFFFDB
00000013
0000000F
FFFFFFBD
FFFFFF81
FFFFFFE9
00000074
00000067
FFFFFFFC
00000001
00000002
FFFFFFFD
0000007F
FFFFFF86
00000003
00000005
FFFFFFF6
00000002
FFFFFFFD
FFFFFFF9
FFFFFFF9
FFFFFF9A
0000007E
00000008
0000006E
FFFFFF81
FFFFFFEF
FFFFFFAD
FFFFFF81
FFFFFFD5
FFFFFFAA
FFFFFF97
FFFFFF8F
0000000C
FFFFFF83
FFFFFFF6
FFFFFF81
FFFFFFB0
FFFFFFE0
FFFFFFB6
FFFFFFA0
0000002D
FFFFFFB6
FFFFFFBB
FFFFFFE3
0000004E
00000038
00000007
0000007F
00000047
0000000D
0000005D
00000021
00000013
00000076
0000001A
FFFFFFFB
00000005
FFFFFFF8
FFFFFFF4
FFFFFF81
FFFFFFF0
FFFFFFF0
00000039
FFFFFFDA
0000001E
0000005C
FFFFFF81
FFFFFFF2
00000011
FFFFFFFE
FFFFFFB8
FFFFFFD9
FFFFFFA6
FFFFFFB0
00000014
FFFFFF9F
FFFFFF81
FFFFFFC4
FFFFFFB1
0000003A
0000007F
00000013
FFFFFFE6
00000079
0000002A
FFFFFFC2
FFFFFF83
00000002
FFFFFFF1
00000016
FFFFFFDB
FFFFFFE4
0000007F
00000028
00000008
00000000
FFFFFFEC
00000003
00000002
FFFFFFFC
00000001
FFFFFF81
00000079
00000001
FFFFFFFF
00000002
FFFFFF85
FFFFFF9D
FFFFFF81
FFFFFFDC
FFFFFFAE
FFFFFFCF
00000010
0000003E
FFFFFFDA
00000005
FFFFFFA8
FFFFFFD8
FFFFFFF3
0000007F
00000017
00000001
FFFFFFEC
0000000D
00000000
00000007
00000012
0000001E
FFFFFF81
FFFFFFF1
00000001
00000002
00000009
00000000
00000013
FFFFFFFE
FFFFFFFD
FFFFFF81
0000003A
00000004
00000012
00000006
FFFFFFF8
FFFFFFD4
FFFFFFFF
FFFFFFEE
0000007F
FFFFFFE6
00000001
FFFFFFEA
FFFFFFFC
FFFFFFF8
00000007
00000010
0000002F
FFFFFF81
FFFFFFEA
FFFFFFEF
0000000F
00000005
FFFFFFF4
FFFFFFF4
FFFFFFF6
FFFFFFEC
0000007F
FFFFFFCE
00000001
FFFFFFF9
FFFFFFF5
0000003F
FFFFFFE9
FFFFFFDB
FFFFFF90
FFFFFFBD
FFFFFFB2
FFFFFFAD
FFFFFFB3
FFFFFF81
FFFFFFD0
FFFFFFC6
FFFFFFDF
FFFFFFB3
FFFFFF81
FFFFFFBB
FFFFFFC9
FFFFFF9E
FFFFFFC2
FFFFFFFD
FFFFFFD3
FFFFFFED
FFFFFFDB
FFFFFF81
FFFFFFC0
FFFFFFFD
FFFFFFC5
FFFFFFDB
FFFFFFD3
FFFFFFBB
FFFFFFF1
FFFFFFEE
FFFFFF81
FFFFFF94
FFFFFFFF
FFFFFFDA
FFFFFFB6
FFFFFFD3
FFFFFF91
FFFFFFCF
00000006
FFFFFFF7
FFFFFFF4
0000002A
0000007F
00000032
FFFFFFDB
FFFFFFB7
FFFFFFDB
FFFFFFCC
FFFFFF81
FFFFFFBF
FFFFFFF7
FFFFFFD1
FFFFFFEA
00000020
0000005C
00000038
FFFFFFC5
FFFFFF81
FFFFFFB9
00000013
00000023
00000019
FFFFFFC4
FFFFFFD2
00000007
00000051
0000007F
0000002F
00000004
FFFFFFC4
FFFFFFB8
00000016
00000067
00000050
FFFFFFCC
FFFFFF81
FFFFFFBD
00000015
00000019
FFFFFFFA
00000025
0000006C
00000027
0000000E
0000001C
FFFFFFFF
FFFFFFCE
FFFFFF81
FFFFFFD1
FFFFFFEB
FFFFFFBF
FFFFFFBE
FFFFFFC4
FFFFFF81
FFFFFF93
FFFFFFC8
FFFFFF9C
FFFFFFC1
FFFFFFF4
00000042
FFFFFFFC
FFFFFFC5
0000007F
FFFFFFFA
FFFFFFE8
00000024
00000027
FFFFFFF3
00000002
00000004
00000029
0000007F
00000069
0000002C
00000074
00000058
00000038
0000004A
00000020
00000045
0000007F
00000057
0000001F
00000047
00000041
0000000B
0000000E
00000003
FFFFFFBE
FFFFFFAF
00000002
FFFFFF92
FFFFFF81
FFFFFFF8
FFFFFFD6
FFFFFFFC
0000002E
FFFFFF81
00000005
00000078
FFFFFFB1
FFFFFFFE
00000053
0000003E
0000004B
0000002A
0000007F
0000007E
0000002F
00000063
0000006D
0000001D
00000022
0000005B
00000020
00000017
00000020
FFFFFFFE
FFFFFFC8
FFFFFF81
FFFFFFE7
00000002
00000011
00000007
00000020
00000002
FFFFFFDB
FFFFFFA8
FFFFFF81
FFFFFFDA
FFFFFFD1
FFFFFFDE
00000028
00000026
FFFFFF81
0000002E
00000051
FFFFFFB7
FFFFFFF3
00000023
00000048
00000031
0000005A
0000006A
00000061
00000060
0000007F
00000059
FFFFFFE1
FFFFFFBD
FFFFFFD5
FFFFFFBE
FFFFFF81
FFFFFF9E
FFFFFFDC
FFFFFFB9
FFFFFFCF
FFFFFFF1
FFFFFFC6
FFFFFFEA
FFFFFFE2
FFFFFF81
FFFFFFB3
0000001C
FFFFFFED
FFFFFFCC
00000004
FFFFFFFA
0000002C
00000040
0000005A
0000000A
00000070
0000007F
FFFFFFE7
FFFFFFEC
FFFFFFA7
FFFFFFC5
00000013
FFFFFF93
FFFFFF81
00000041
00000000
FFFFFFD9
00000041
FFFFFFE2
FFFFFFC1
FFFFFFEA
FFFFFFA1
FFFFFFD7
FFFFFF96
FFFFFF81
FFFFFF9A
FFFFFFDB
FFFFFFBC
FFFFFFDC
FFFFFFC5
FFFFFF81
FFFFFFA2
FFFFFFDE
FFFFFFA5
FFFFFFB4
00000027
0000000A
FFFFFFD2
00000070
00000016
FFFFFF81
00000043
00000008
FFFFFFAA
00000010
00000026
FFFFFFC2
FFFFFFFF
FFFFFFE2
00000020
00000007
FFFFFF8E
0000007F
00000040
0000007F
0000003D
0000002D
00000054
00000025
00000002
00000018
00000001
FFFFFF81
0000001F
FFFFFFF9
FFFFFFC9
FFFFFFAD
FFFFFFFA
FFFFFFB9
FFFFFFA6
FFFFFFB8
00000022
0000003F
00000022
00000041
0000007F
0000003F
00000017
0000003E
00000029
00000010
00000039
00000038
0000003A
0000007F
00000060
00000037
00000063
0000003B
00000019
0000002F
0000000E
00000029
0000007F
00000039
FFFFFFF9
00000029
00000035
FFFFFFF5
FFFFFFCF
FFFFFFD3
FFFFFFE9
FFFFFF81
FFFFFFAE
FFFFFFFB
FFFFFFB4
FFFFFFC6
00000034
00000060
0000003A
00000013
FFFFFFFC
FFFFFFE2
FFFFFFB1
FFFFFF81
FFFFFFC6
FFFFFFFB
0000002E
FFFFFFCF
FFFFFFEA
0000007F
FFFFFF98
FFFFFFEB
00000049
FFFFFFD1
FFFFFFF1
FFFFFFCD
00000019
0000005D
0000002A
FFFFFF81
FFFFFFAF
00000033
00000077
0000004A
FFFFFFA1
0000000D
FFFFFFF7
FFFFFFEF
FFFFFFF7
FFFFFFCD
0000007F
FFFFFFFC
00000018
FFFFFFFC
FFFFFFEC
0000007F
FFFFFFEB
FFFFFFB2
00000054
FFFFFFC8
FFFFFFC6
FFFFFFF7
FFFFFFCB
FFFFFFC5
FFFFFFE6
FFFFFF9F
FFFFFF81
FFFFFFE9
FFFFFFB3
FFFFFFA9
FFFFFFEC
FFFFFFC6
FFFFFFCF
FFFFFFC3
FFFFFF81
FFFFFFA3
FFFFFFC5
FFFFFFA0
FFFFFFCB
FFFFFFEA
FFFFFFC1
FFFFFFC3
FFFFFFC1
FFFFFF81
FFFFFF9D
FFFFFFCF
FFFFFFB4
FFFFFFD3
FFFFFFE1
FFFFFFDA
FFFFFFFC
00000007
FFFFFF81
FFFFFF8F
00000016
FFFFFFCC
FFFFFFB5
FFFFFFD9
00000056
FFFFFFD4
00000008
0000007F
FFFFFFA2
00000041
00000013
FFFFFFCB
FFFFFFEC
FFFFFFD2
FFFFFFE5
FFFFFFDD
FFFFFFBE
FFFFFFD7
0000002E
0000007F
00000048
00000026
00000041
00000024
00000043
0000007F
00000053
0000001F
0000005A
0000004B
00000048
00000009
FFFFFFEC
0000007F
FFFFFFFD
FFFFFFDA
00000016
FFFFFFF8
FFFFFFFC
FFFFFFD9
FFFFFFDF
FFFFFFE9
FFFFFFDD
FFFFFF81
FFFFFFA6
FFFFFFE9
FFFFFF95
FFFFFFAE
0000001E
0000000B
FFFFFFD4
00000065
0000001F
FFFFFF81
00000038
00000010
FFFFFFB7
FFFFFFC4
FFFFFFBB
FFFFFFDC
FFFFFFA6
FFFFFF81
FFFFFFAA
FFFFFFC9
FFFFFFB0
FFFFFFC4
FFFFFFDC
FFFFFFB7
FFFFFFC4
FFFFFFB7
FFFFFF81
FFFFFFAA
FFFFFFD2
FFFFFFA8
FFFFFFCD
00000034
00000050
00000029
00000054
0000007F
00000055
00000037
00000063
00000038
0000001E
00000018
00000001
FFFFFFC8
FFFFFF81
FFFFFFB9
00000015
00000032
0000002C
00000019
00000031
0000001D
00000049
0000007F
00000048
00000038
00000064
00000037
FFFFFFDC
FFFFFFC0
FFFFFFC2
FFFFFFC5
FFFFFF81
FFFFFFAE
FFFFFFD6
FFFFFFC6
FFFFFFD9
00000010
00000035
0000001B
0000003E
0000007F
00000041
0000003A
00000062
0000002F
00000005
FFFFFFE2
FFFFFFEA
FFFFFFE0
FFFFFF81
FFFFFFC4
FFFFFFF1
FFFFFFA8
FFFFFFEA
FFFFFFEB
FFFFFFC7
FFFFFFE1
FFFFFFA9
FFFFFFCD
FFFFFFFF
FFFFFF81
FFFFFFB4
FFFFFFE6
FFFFFFD0
FFFFFFCF
FFFFFFE7
FFFFFF94
FFFFFF81
FFFFFFC0
FFFFFFC7
FFFFFFA0
FFFFFFCE
0000000D
FFFFFFCB
0000001E
0000003A
FFFFFF81
00000048
00000034
FFFFFFBF
00000016
FFFFFFF1
FFFFFF85
0000003F
FFFFFFA5
0000007F
00000052
0000001E
00000035
FFFFFF82
FFFFFFD8
FFFFFFE6
00000040
00000017
FFFFFFA6
FFFFFF81
00000015
00000071
00000025
0000002C
0000004A
00000028
0000003D
0000007F
00000051
0000001A
0000004B
00000031
FFFFFFEF
FFFFFFE1
00000010
FFFFFF81
0000001D
00000079
FFFFFFC8
0000000E
00000032
FFFFFFED
0000004A
00000013
FFFFFFD0
FFFFFF81
FFFFFFC4
0000002D
FFFFFFB8
FFFFFFF7
FFFFFFE3
FFFFFFEF
FFFFFFF8
FFFFFFEF
FFFFFFFF
0000007F
FFFFFFE4
FFFFFFE8
00000004
FFFFFFFB
FFFFFFF9
FFFFFFCE
0000000B
0000007F
FFFFFFD5
FFFFFFD9
0000001C
FFFFFFEF
00000003
FFFFFFFF
FFFFFFF3
00000003
FFFFFF81
0000000F
00000007
FFFFFFE9
FFFFFFFC
00000065
FFFFFFC5
FFFFFF81
00000026
00000016
00000036
FFFFFF89
FFFFFFBB
0000006A
00000010
00000035
FFFFFFA9
FFFFFFF8
0000007F
00000046
FFFFFFC8
00000001
00000019
FFFFFFEC
0000000B
FFFFFFFD
FFFFFFC7
0000007F
00000055
FFFFFFEC
00000002
FFFFFFCC
FFFFFFFD
00000007
FFFFFFFE
FFFFFFE2
0000007F
FFFFFFFC
FFFFFFF9
00000010
00000002
00000000
FFFFFFC4
00000020
FFFFFFE3
0000007F
00000012
00000008
00000014
FFFFFFC9
00000006
FFFFFFF5
00000002
00000033
FFFFFF81
00000047
0000000A
FFFFFFDD
00000012
00000019
FFFFFFB2
00000022
FFFFFFC7
0000007F
FFFFFFD2
00000023
FFFFFFB3
00000015
FFFFFFB7
FFFFFFA6
FFFFFFD3
0000001C
00000028
FFFFFFB9
00000065
0000007F
FFFFFFF1
FFFFFFB7
0000002C
00000021
00000053
0000005C
FFFFFFD3
0000004E
00000016
FFFFFF81
FFFFFFF8
00000013
FFFFFFF8
FFFFFFF2
0000006C
FFFFFFE1
00000019
FFFFFF81
0000002A
FFFFFFD9
00000044
00000041
00000002
FFFFFF81
00000012
00000028
0000000C
FFFFFFC9
00000036
FFFFFFBA
0000000D
FFFFFF81
0000002E
0000002C
0000000C
0000002B
FFFFFFD3
00000002
FFFFFFE6
FFFFFFFD
FFFFFFF5
0000007F
FFFFFFF9
00000007
FFFFFFC7
0000000A
FFFFFFF9
00000009
FFFFFFF7
FFFFFFFC
0000007F
FFFFFFED
FFFFFFF8
FFFFFFF1
FFFFFFFD
FFFFFFF4
00000009
FFFFFFFD
00000002
0000007F
00000002
FFFFFFFE
00000033
FFFFFFFD
FFFFFFF5
FFFFFFF9
FFFFFFF5
FFFFFFF1
0000007F
00000003
FFFFFFF4
00000010
FFFFFFF3
FFFFFFF8
0000000C
00000006
0000001B
FFFFFF81
00000058
0000000C
FFFFFFF3
00000001
0000000F
FFFFFFDC
00000008
0000005C
FFFFFF81
0000002C
00000017
FFFFFFD7
0000000F
00000077
00000001
00000023
0000007F
FFFFFFDA
0000003A
00000029
0000000A
FFFFFFC3
00000009
FFFFFFC5
FFFFFFFE
FFFFFFDC
00000064
FFFFFFB1
FFFFFFFB
FFFFFF81
FFFFFFE2
FFFFFFD8
FFFFFFBF
FFFFFFEB
FFFFFFDF
0000007F
FFFFFFFA
FFFFFFEF
00000028
00000004
0000001F
00000004
00000009
FFFFFFF5
FFFFFF81
FFFFFFED
0000000D
0000001A
0000001D
0000000D
FFFFFFF1
FFFFFFFF
00000061
FFFFFF81
00000025
0000000E
FFFFFFF3
FFFFFFFE
0000000B
FFFFFFE7
FFFFFFF6
0000007F
FFFFFFD4
FFFFFFDD
0000001E
FFFFFFF3
FFFFFFDE
FFFFFFE3
FFFFFFFE
0000000D
FFFFFFEE
0000007F
FFFFFFE4
00000003
FFFFFFF8
FFFFFFEF
FFFFFFFB
FFFFFFF9
FFFFFFEE
FFFFFFF2
FFFFFFCB
FFFFFFE4
FFFFFFF6
0000000F
0000007F
FFFFFFFA
FFFFFFFA
FFFFFFFC
FFFFFFE6
0000007F
00000005
FFFFFFF8
00000005
FFFFFFF9
FFFFFFEC
0000000D
FFFFFFE6
00000005
0000007F
00000021
FFFFFFE7
00000019
FFFFFFE2
FFFFFFF3
FFFFFFCE
FFFFFFD0
FFFFFFB5
FFFFFF81
FFFFFFC6
FFFFFFD2
FFFFFFCE
FFFFFFD5
0000000F
00000036
00000018
FFFFFFF8
FFFFFF81
FFFFFFDC
0000000A
0000003D
0000001C
FFFFFFF2
FFFFFFE7
00000000
FFFFFFFF
0000007F
00000000
0000000C
FFFFFFBF
FFFFFFF9
00000002
0000001F
00000003
00000022
FFFFFF81
00000021
00000004
0000000F
00000002
00000015
FFFFFFF2
FFFFFFEF
00000028
0000007F
FFFFFFA8
FFFFFFCE
00000048
00000015
FFFFFFDD
00000016
00000003
FFFFFFBB
0000007F
00000066
FFFFFFDA
FFFFFFD4
FFFFFFD4
FFFFFFCB
FFFFFFC7
0000004C
FFFFFFE8
FFFFFF81
00000016
FFFFFFC5
00000063
0000007F
FFFFFFF8
0000000C
FFFFFFFF
FFFFFFCB
FFFFFFB3
0000007F
FFFFFFF9
FFFFFFF1
00000017
FFFFFFF2
FFFFFFEE
0000001E
FFFFFFC9
FFFFFFD5
0000007F
FFFFFFF7
FFFFFFDA
0000001A
FFFFFFEF
FFFFFFF2
FFFFFFFA
FFFFFFEC
FFFFFF81
FFFFFFDC
FFFFFFF0
00000017
FFFFFFEB
0000000F
FFFFFFFD
FFFFFFFC
FFFFFFED
FFFFFF8F
0000007F
FFFFFFF7
FFFFFFE7
00000032
FFFFFFF6
00000016
FFFFFFF3
00000003
FFFFFF81
00000075
00000004
00000065
FFFFFF9F
FFFFFFE8
00000006
FFFFFFF6
FFFFFF81
00000058
00000046
FFFFFFF8
FFFFFFFA
FFFFFFF5
FFFFFFE2
00000043
00000006
FFFFFFFF
0000004D
0000007F
FFFFFFDA
FFFFFFF1
FFFFFFF9
00000011
0000006F
0000003A
0000000D
00000011
FFFFFFF2
FFFFFFE9
FFFFFF81
FFFFFFCC
FFFFFFDA
FFFFFF95
00000029
00000062
FFFFFFF0
00000069
0000003A
FFFFFF81
FFFFFFD5
FFFFFFFF
FFFFFFF8
FFFFFFEE
0000000D
0000007F
0000000C
FFFFFFF2
00000003
00000006
FFFFFFFD
00000017
00000001
00000004
FFFFFF81
FFFFFFD0
FFFFFFFE
00000005
FFFFFFF6
FFFFFFC3
FFFFFFB9
FFFFFFE0
FFFFFFEB
0000006C
0000001B
FFFFFFE6
0000007F
FFFFFFEF
00000025
00000013
00000036
FFFFFFF1
FFFFFF81
FFFFFFFC
00000042
FFFFFFB8
FFFFFFF5
FFFFFFFF
00000015
FFFFFFFF
00000019
00000028
FFFFFF81
0000000D
00000028
FFFFFFD6
FFFFFFFB
FFFFFFF7
FFFFFFFC
FFFFFFFA
0000007F
00000002
00000007
FFFFFFC1
FFFFFFFE
00000001
00000030
FFFFFFF1
00000023
FFFFFFF9
FFFFFFDF
00000008
FFFFFF99
0000007F
FFFFFFFB
00000046
00000012
00000058
FFFFFFD6
00000017
FFFFFFF2
FFFFFF81
FFFFFFE9
0000000B
FFFFFFF0
00000009
00000042
FFFFFF81
00000039
FFFFFFAA
00000056
0000000B
00000007
00000030
00000015
00000004
FFFFFF81
00000001
0000000D
00000020
00000000
0000001D
0000007F
00000035
0000000F
FFFFFFA8
FFFFFFDB
00000000
FFFFFFB6
FFFFFFF4
FFFFFFF5
FFFFFFC0
FFFFFF94
FFFFFFD9
0000007F
00000048
FFFFFF95
0000007D
0000007C
00000004
FFFFFFDC
00000002
FFFFFFF7
0000007F
FFFFFFF5
00000001
FFFFFFF7
00000004
00000010
FFFFFFD4
00000000
0000007A
FFFFFFD0
FFFFFFD0
0000007F
FFFFFFCE
FFFFFFC9
FFFFFFB5
0000000B
00000004
00000021
00000043
00000018
0000004C
0000007F
FFFFFFB0
FFFFFFF8
FFFFFFEC
00000001
FFFFFFDA
0000007F
FFFFFFE7
00000005
FFFFFFE1
FFFFFFFD
0000004C
00000074
00000012
00000069
FFFFFFD4
FFFFFF8F
FFFFFFE8
FFFFFF81
FFFFFFFB
00000008
00000042
00000014
FFFFFFE8
FFFFFF81
FFFFFFDB
0000000D
00000044
0000000C
FFFFFFF5
00000017
FFFFFFF3
FFFFFFDE
0000007F
FFFFFFC3
FFFFFFF1
0000002A
FFFFFFE3
0000000C
FFFFFFE6
0000000C
FFFFFFFE
FFFFFF85
0000007F
00000006
FFFFFFE2
00000015
00000011
0000005E
00000041
00000000
00000032
FFFFFFEB
FFFFFFE6
FFFFFF81
FFFFFFCD
FFFFFFFE
00000017
FFFFFFFD
FFFFFFE9
FFFFFF81
FFFFFFED
00000013
00000071
00000010
FFFFFFF5
00000002
FFFFFFFE
00000003
0000007F
00000018
FFFFFFFF
00000010
FFFFFFFD
FFFFFFFF
FFFFFFD2
00000011
FFFFFFD9
0000007F
0000001D
FFFFFFFF
0000002B
FFFFFFBD
00000009
00000013
0000000B
00000015
FFFFFF81
0000000A
00000004
00000029
0000000B
FFFFFFF1
FFFFFFB2
FFFFFFE9
0000000B
0000007F
00000029
FFFFFFFC
FFFFFFD8
FFFFFFF5
FFFFFFF1
FFFFFFEA
0000000B
FFFFFFF9
0000007F
FFFFFFCE
00000007
FFFFFFAF
00000022
FFFFFFFA
0000003B
FFFFFFDA
00000011
00000006
FFFFFFAF
00000010
FFFFFFA2
0000007F
0000000D
00000019
FFFFFFFD
00000019
FFFFFF81
0000001B
00000000
00000015
0000000B
00000008
0000000A
FFFFFFE3
00000004
0000007A
FFFFFF81
00000010
00000027
FFFFFFD3
00000008
FFFFFFFB
FFFFFFE4
00000003
FFFFFFB4
0000007F
00000006
FFFFFFEF
0000000C
FFFFFFF0
FFFFFFF7
FFFFFFF5
00000006
0000007F
00000002
FFFFFFFB
FFFFFFF4
FFFFFFF6
00000019
00000000
00000001
0000002B
FFFFFF81
0000002F
00000001
FFFFFFFB
0000002C
FFFFFFF8
FFFFFFF2
FFFFFFF2
FFFFFFF2
0000007F
00000003
FFFFFFF7
00000006
FFFFFFFB
0000001A
00000022
00000039
00000058
00000031
00000041
0000003F
0000007F
00000059
00000018
0000007F
0000001C
FFFFFFE7
FFFFFFDE
FFFFFFE3
FFFFFFEE
FFFFFFD9
FFFFFFE2
FFFFFFD3
FFFFFFA4
FFFFFFD5
0000000B
00000004
FFFFFFBD
00000073
0000007F
FFFFFFF6
FFFFFFFC
FFFFFFEA
00000007
FFFFFFE8
0000007F
FFFFFFC7
00000000
FFFFFFF0
00000004
FFFFFFFC
00000008
0000000E
00000018
FFFFFF81
0000001B
00000004
00000022
FFFFFFE4
00000001
FFFFFFF5
FFFFFFEB
FFFFFFFF
0000007F
00000010
FFFFFFFC
FFFFFF9F
FFFFFFFF
FFFFFFF7
0000000E
FFFFFFF2
FFFFFFEF
00000072
00000007
0000000F
FFFFFF81
00000009
FFFFFFE6
0000005A
FFFFFFBA
FFFFFFE7
00000029
0000001B
00000009
FFFFFF81
00000031
FFFFFFFA
FFFFFFCC
FFFFFFEC
00000012
0000007F
00000046
FFFFFFFE
FFFFFFB8
FFFFFFD6
0000006B
0000007F
00000069
00000013
00000045
0000002E
00000010
0000004D
00000060
FFFFFFF3
FFFFFFEF
FFFFFFF6
FFFFFFFE
FFFFFF81
FFFFFFF2
00000000
FFFFFFEC
00000007
00000017
00000052
FFFFFFD2
FFFFFFF9
FFFFFFAD
FFFFFFAD
00000000
FFFFFFFD
0000007F
00000004
FFFFFFDF
00000000
FFFFFFE2
0000007F
FFFFFFEC
FFFFFFFC
FFFFFFF1
FFFFFFFB
00000003
0000000F
FFFFFFCA
FFFFFFEB
0000007F
00000003
FFFFFFF4
FFFFFFC7
0000002B
00000014
00000000
00000039
00000036
FFFFFF81
FFFFFFA6
00000008
FFFFFFFB
00000011
FFFFFFF8
0000001C
FFFFFFF5
FFFFFFE3
FFFFFF91
FFFFFFD9
00000013
0000007F
0000001B
00000001
0000000E
00000014
00000015
FFFFFF81
0000000A
0000000C
0000000C
FFFFFFFD
FFFFFFEE
FFFFFFF6
00000003
FFFFFFF9
0000007F
00000004
00000007
00000001
FFFFFFEE
FFFFFFEA
00000033
0000000D
00000005
0000001C
FFFFFF81
00000010
FFFFFFA1
00000050
00000005
FFFFFFF0
FFFFFFEB
00000010
FFFFFF81
00000005
00000002
FFFFFF83
FFFFFFFC
FFFFFFF6
00000031
FFFFFFEB
00000013
FFFFFF81
00000067
00000000
00000009
FFFFFFFC
FFFFFFFB
00000018
00000004
0000003D
FFFFFF81
00000035
00000008
0000000D
FFFFFFFF
00000013
00000012
00000012
0000000F
FFFFFF81
00000003
00000008
0000000B
0000000E
00000006
FFFFFFF8
FFFFFFFB
FFFFFFF2
0000007F
00000001
FFFFFFFF
00000003
00000011
FFFFFFF8
FFFFFFF9
FFFFFFF7
FFFFFFEC
0000007F
FFFFFFFA
FFFFFFF8
00000007
FFFFFFFC
FFFFFFFC
FFFFFFE9
00000000
FFFFFFE0
0000007F
FFFFFFE2
00000006
FFFFFFE4
00000000
FFFFFFEC
FFFFFFFD
FFFFFFF9
00000000
0000007F
FFFFFFFE
FFFFFFFA
FFFFFFFD
FFFFFFF0
00000006
0000003F
00000012
FFFFFFE1
FFFFFF81
FFFFFFCF
00000004
00000036
0000000D
FFFFFFFF
00000001
FFFFFFFE
00000010
FFFFFF81
FFFFFFFC
FFFFFFF9
FFFFFFEF
00000001
FFFFFFF3
FFFFFFB1
00000037
00000076
FFFFFFFD
FFFFFF81
FFFFFFD0
00000060
FFFFFFFE
FFFFFFF6
FFFFFFEC
00000001
FFFFFFEF
0000007F
FFFFFFDE
FFFFFFF2
FFFFFFFD
FFFFFFF2
FFFFFFF7
FFFFFFF4
00000013
0000001F
00000046
FFFFFF81
FFFFFFF0
FFFFFFF7
00000013
00000002
00000021
FFFFFFFE
00000002
00000056
0000001A
FFFFFFFE
FFFFFF81
FFFFFFE2
FFFFFFEB
FFFFFFF0
FFFFFFF2
FFFFFFF9
0000007F
00000003
FFFFFFF8
0000001A
00000011
0000001C
FFFFFFB5
0000000F
FFFFFFE3
0000007F
FFFFFFB5
FFFFFFF3
FFFFFFDB
00000021
FFFFFFF5
0000000A
00000001
0000000E
0000007F
00000000
00000000
00000020
FFFFFFF8
00000009
0000001C
00000009
00000014
FFFFFF81
00000004
0000000A
00000009
00000004
FFFFFFF9
00000001
FFFFFFDC
00000015
0000007F
0000000D
FFFFFFD6
00000012
00000004
FFFFFFF5
00000017
FFFFFFCE
FFFFFFC6
FFFFFF81
FFFFFFA1
FFFFFFC5
0000000A
FFFFFFDD
00000047
0000004B
00000022
FFFFFFF5
FFFFFFD0
00000035
FFFFFFBA
FFFFFF81
00000015
00000010
00000021
00000013
00000004
FFFFFF81
00000000
0000000D
0000001F
00000017
FFFFFFFD
0000001C
00000003
00000007
FFFFFF81
0000000F
FFFFFFFA
0000005E
FFFFFFEF
00000009
0000000D
0000000A
00000011
FFFFFF81
FFFFFFB8
0000000A
FFFFFFF4
00000007
FFFFFFEE
FFFFFFFC
FFFFFFE5
0000000A
0000007F
00000014
FFFFFFE0
FFFFFFA4
FFFFFFD2
FFFFFFFF
FFFFFFEC
00000003
FFFFFFD8
0000007F
FFFFFFE7
00000003
FFFFFFD5
FFFFFFFC
00000003
FFFFFFE8
00000016
00000016
FFFFFF81
00000067
00000006
FFFFFFD9
00000023
FFFFFFE1
FFFFFFAA
FFFFFFCD
FFFFFFA4
FFFFFF81
FFFFFFD3
FFFFFFDC
FFFFFFF2
00000019
0000002B
0000004F
0000002B
00000051
0000007F
0000003E
00000027
0000003C
0000001E
FFFFFFE6
FFFFFFC1
FFFFFFD4
FFFFFFC6
FFFFFF81
FFFFFF9E
FFFFFFDB
FFFFFFA3
FFFFFFB6
00000022
00000056
00000054
0000000C
0000006A
0000007F
FFFFFFD5
FFFFFFFD
00000028
00000009
00000015
0000000C
FFFFFFE0
FFFFFFB8
FFFFFFC5
FFFFFFAF
FFFFFF81
FFFFFFA5
FFFFFFF0
FFFFFFCE
FFFFFFD4
FFFFFFBA
FFFFFF81
FFFFFFA0
FFFFFFBB
FFFFFF90
FFFFFFB7
FFFFFFFB
0000004C
00000072
FFFFFFF5
00000048
0000007F
FFFFFFC1
FFFFFFB6
FFFFFFFB
FFFFFFE2
FFFFFFCA
00000052
FFFFFFF7
FFFFFF81
00000064
00000013
FFFFFFAF
00000027
0000001B
0000002C
00000021
0000005A
0000007F
00000046
0000004D
0000005A
00000028
FFFFFFD9
FFFFFFBF
FFFFFFDA
FFFFFFA3
FFFFFF81
FFFFFFA8
FFFFFFC5
FFFFFF9A
FFFFFFBA
FFFFFFB3
FFFFFFCA
00000021
FFFFFF81
FFFFFFC4
0000003E
FFFFFFB1
FFFFFFEB
00000023
0000001E
0000003E
00000022
0000003D
0000007F
0000004F
00000019
00000052
00000042
00000012
00000041
00000035
00000040
0000007F
00000055
0000003A
0000005F
00000032
0000001B
00000042
0000002D
00000038
0000007F
00000056
0000001E
00000048
00000032
00000016
0000003F
00000036
0000003F
0000007F
00000058
0000002E
00000052
0000002D
0000001D
0000003C
0000001D
00000043
0000007F
0000004A
00000023
00000052
0000003E
FFFFFFD7
FFFFFFB7
FFFFFFDA
FFFFFFAB
FFFFFF81
FFFFFFA4
FFFFFFBC
FFFFFF94
FFFFFFB1
FFFFFFAC
FFFFFFC0
00000005
FFFFFFBC
FFFFFF81
FFFFFFC8
00000006
FFFFFFB9
FFFFFFBD
0000001E
0000003A
00000027
00000043
0000007F
00000056
00000030
00000056
00000037
00000022
00000045
0000002A
00000041
0000007F
00000051
00000030
00000057
00000034
00000043
00000010
FFFFFFCC
FFFFFFD6
0000004D
0000006F
FFFFFFCB
FFFFFF81
FFFFFFBB
00000018
00000038
0000002A
0000003B
0000007F
00000055
00000028
00000058
00000037
0000000E
00000036
0000001E
00000033
0000007F
0000004F
0000002B
00000057
00000037
0000001D
00000040
00000026
0000003F
0000007F
00000053
00000026
00000057
0000003E
FFFFFFE3
0000006A
FFFFFFE8
FFFFFFAF
00000041
0000005F
FFFFFFE0
FFFFFFAB
0000007F
FFFFFFEA
FFFFFFC6
FFFFFFD1
FFFFFFC0
FFFFFF81
FFFFFFAC
FFFFFFCD
FFFFFFA2
FFFFFFD0
00000023
00000059
0000004C
00000018
0000007F
00000075
0000000D
00000060
00000048
FFFFFFDE
FFFFFFA1
FFFFFFBA
FFFFFFDB
FFFFFF81
FFFFFFA3
FFFFFFE7
FFFFFFAC
FFFFFFC5
00000030
00000043
0000001E
0000004B
0000007F
00000046
00000020
00000049
00000033
FFFFFFED
0000003E
00000045
0000004C
0000007F
0000004D
00000054
00000056
00000005
FFFFFFB5
00000054
FFFFFFF7
FFFFFF81
00000074
00000009
FFFFFFB1
00000034
0000000D
0000001E
00000044
0000002F
00000034
0000007F
0000005C
00000029
0000004D
00000032
FFFFFFE3
FFFFFFBD
FFFFFFCE
FFFFFFBB
FFFFFF81
FFFFFFB0
FFFFFFCF
FFFFFFB3
FFFFFFDE
FFFFFFD9
FFFFFFB6
FFFFFFD8
FFFFFFBF
FFFFFF81
FFFFFFB4
FFFFFFD9
FFFFFFB2
FFFFFFCE
0000000C
00000036
00000030
0000001E
0000007F
00000075
00000021
00000062
0000005B
0000002C
0000004A
00000029
0000003F
0000007F
00000058
00000014
00000045
0000003B
0000001A
00000041
0000002F
0000003A
0000007F
00000055
00000028
00000051
00000033
00000025
00000038
0000001E
0000004C
0000007F
0000004F
00000034
00000061
00000043
0000000C
00000043
0000003F
00000043
0000007F
0000004F
00000044
00000058
00000016
00000023
00000041
00000029
00000045
0000007F
00000043
00000029
0000004C
00000029
00000026
00000045
00000033
0000004D
0000007F
0000005B
00000035
00000062
00000044
00000018
00000040
00000033
00000047
0000007F
0000004E
00000039
00000057
00000027
FFFFFFDD
FFFFFFC7
FFFFFFDB
FFFFFFB6
FFFFFF81
FFFFFFA8
FFFFFFD1
FFFFFFA5
FFFFFFC0
FFFFFFCB
FFFFFFB9
FFFFFFE0
FFFFFFAB
FFFFFF81
FFFFFFB7
FFFFFFCD
FFFFFFAC
FFFFFFC9
FFFFFFFF
0000000F
00000017
0000001B
0000006F
00000065
0000002F
0000007F
00000067
FFFFFFE2
FFFFFFC1
FFFFFFD5
FFFFFFBC
FFFFFF81
FFFFFFA0
FFFFFFD3
FFFFFFA0
FFFFFFBE
00000028
FFFFFFB9
FFFFFF96
00000053
0000007F
00000027
FFFFFFB5
FFFFFFF7
0000005B
FFFFFFD8
FFFFFFB5
FFFFFFD4
FFFFFFB9
FFFFFF81
FFFFFFAF
FFFFFFD3
FFFFFFAF
FFFFFFCA
FFFFFFFE
0000003C
00000065
FFFFFFB9
0000001C
0000007F
FFFFFF96
FFFFFF98
FFFFFFFB
FFFFFFE8
FFFFFFC3
FFFFFFD4
FFFFFFC2
FFFFFF81
FFFFFFB8
FFFFFFD7
FFFFFFB1
FFFFFFD1
0000002A
00000041
00000034
00000044
0000007F
00000071
00000039
00000070
0000005C
FFFFFFD6
FFFFFFBB
FFFFFFD3
FFFFFFAC
FFFFFF81
FFFFFFA7
FFFFFFCC
FFFFFFAE
FFFFFFCB
00000018
00000037
0000002A
00000039
0000007F
00000057
00000030
00000063
00000040
FFFFFFE5
FFFFFFC3
FFFFFFD1
FFFFFFC9
FFFFFF81
FFFFFF9F
FFFFFFDB
FFFFFFAC
FFFFFFBB
0000001B
00000035
0000002E
00000041
0000007F
00000066
00000034
00000061
00000046
0000000E
00000017
00000019
00000026
00000064
0000005E
00000034
0000007F
00000064
FFFFFFF2
FFFFFFD9
FFFFFFD9
0000005D
00000050
FFFFFFE8
0000007F
0000007D
00000021
0000004A
FFFFFFBB
00000005
00000067
FFFFFF81
00000027
00000031
FFFFFFB4
00000028
FFFFFFE8
FFFFFFC8
FFFFFFD3
FFFFFFC9
FFFFFF81
FFFFFFA7
FFFFFFD6
FFFFFFAC
FFFFFFC8
00000058
0000007F
00000043
00000065
00000067
00000028
00000036
FFFFFFD5
FFFFFF94
FFFFFFD5
FFFFFFCA
FFFFFFE1
FFFFFF90
FFFFFF81
FFFFFFC6
FFFFFFB6
FFFFFF9E
FFFFFFD0
FFFFFFD4
FFFFFFBF
FFFFFFD3
FFFFFFC2
FFFFFF81
FFFFFF9B
FFFFFFD7
FFFFFF9F
FFFFFFB2
00000012
FFFFFFCE
FFFFFFE9
FFFFFFE4
FFFFFFDB
0000003F
FFFFFFBF
0000002E
0000007F
00000025
00000042
0000002A
00000041
0000007F
00000050
0000002B
0000005A
00000033
FFFFFFDF
FFFFFFC6
FFFFFFD0
FFFFFFC4
FFFFFF81
FFFFFF9C
FFFFFFD1
FFFFFF9C
FFFFFFAD
FFFFFFD2
FFFFFFC1
FFFFFFED
FFFFFFB5
00000008
00000041
00000009
00000077
0000007F
FFFFFFE4
FFFFFFC0
FFFFFFD7
FFFFFFC4
FFFFFF81
FFFFFFAF
FFFFFFDB
FFFFFFB1
FFFFFFCD
FFFFFFE0
FFFFFFC4
FFFFFFDB
FFFFFFC5
FFFFFF81
FFFFFFB4
FFFFFFE1
FFFFFFB3
FFFFFFCF
0000002B
00000061
00000040
0000001E
0000007F
00000071
FFFFFFFC
0000003D
0000004D
FFFFFFDD
FFFFFFCE
FFFFFFEB
FFFFFFB7
FFFFFF81
FFFFFFC5
FFFFFFD5
FFFFFFAB
FFFFFFDA
00000024
00000040
0000001D
0000003D
0000007F
0000004A
00000023
00000054
0000003B
FFFFFFB5
FFFFFF94
00000017
FFFFFF82
FFFFFFB1
00000059
FFFFFFFF
00000037
0000007F
FFFFFFE3
FFFFFFC1
FFFFFFD5
FFFFFFC0
FFFFFF81
FFFFFFB2
FFFFFFD2
FFFFFFAC
FFFFFFD2
FFFFFFEC
FFFFFF96
FFFFFF8D
00000023
FFFFFFBD
FFFFFF83
0000007F
0000007B
00000015
FFFFFFF0
FFFFFFA7
FFFFFFA4
0000004F
00000055
00000000
00000044
0000007F
00000054
0000001D
0000004A
00000037
0000002F
0000007F
00000051
00000020
00000057
00000039
0000001B
00000033
0000001D
0000004A
0000007F
0000004A
0000003C
0000006A
00000045
00000005
FFFFFF9E
00000001
00000059
FFFFFF81
FFFFFFD8
0000005F
FFFFFFF5
FFFFFFB8
00000016
00000040
00000033
0000003C
0000007F
0000004E
0000002F
00000052
00000023
FFFFFFEA
FFFFFFBF
FFFFFFD2
FFFFFFBD
FFFFFF81
FFFFFFAC
FFFFFFBE
FFFFFFA0
FFFFFFD4
00000025
00000053
00000045
00000036
0000007F
0000006D
00000021
00000055
0000004A
FFFFFFDF
FFFFFFC2
FFFFFFDD
FFFFFFBF
FFFFFF81
FFFFFFB5
FFFFFFD7
FFFFFFB0
FFFFFFD0
0000002E
00000070
00000044
00000036
0000007F
00000066
0000001B
00000053
00000044
0000001F
00000046
00000030
0000003F
0000007F
00000062
00000025
0000005B
0000004C
0000002E
00000055
00000032
0000004B
0000007F
0000005B
00000034
00000059
00000041
00000010
0000002F
00000032
00000025
0000007F
0000006D
0000002E
00000072
00000046
00000024
00000041
00000027
00000046
0000007F
0000004F
0000002B
0000004D
0000002B
FFFFFFED
FFFFFFC3
FFFFFFBC
FFFFFFC2
FFFFFF81
FFFFFFB4
FFFFFFC4
FFFFFF9B
FFFFFFCC
FFFFFFEA
FFFFFFC2
FFFFFFD0
FFFFFFC2
FFFFFF81
FFFFFFB4
FFFFFFCD
FFFFFFB0
FFFFFFDE
0000001E
0000005D
0000005B
00000022
0000007F
00000072
0000001D
00000056
00000043
00000036
00000073
00000057
0000003D
0000007F
00000063
0000002E
0000005E
00000048
00000065
FFFFFFD3
FFFFFFC2
0000000F
0000005B
FFFFFF90
FFFFFFA6
0000007F
FFFFFFDF
FFFFFFE3
FFFFFFBD
FFFFFFD0
FFFFFFC1
FFFFFF81
FFFFFFA9
FFFFFFD2
FFFFFFAE
FFFFFFCB
0000001E
00000058
00000047
0000002A
0000007F
00000069
0000002A
00000057
00000034
0000000D
0000002F
00000029
00000040
0000007F
00000051
00000029
0000005B
00000042
FFFFFFCF
FFFFFFAA
FFFFFFD2
FFFFFFBC
FFFFFF81
FFFFFFA8
FFFFFFDB
FFFFFFAA
FFFFFFC1
00000023
00000035
00000022
00000045
0000007F
0000005C
00000033
00000064
00000049
FFFFFFCF
FFFFFFC0
FFFFFFE1
FFFFFFB0
FFFFFF81
FFFFFFAF
FFFFFFD1
FFFFFFA0
FFFFFFBD
0000001B
0000003B
0000002E
0000003B
0000007F
00000068
0000002D
0000006C
0000004E
0000001E
00000037
FFFFFFB3
00000024
0000007F
FFFFFF8D
FFFFFFFD
0000004E
FFFFFFC6
FFFFFFDF
FFFFFFC2
FFFFFFD8
FFFFFFB0
FFFFFF81
FFFFFFAB
FFFFFFBD
FFFFFF9B
FFFFFFC9
FFFFFFE1
FFFFFFC9
FFFFFFDA
FFFFFFC4
FFFFFF81
FFFFFFA6
FFFFFFD9
FFFFFFA6
FFFFFFB9
FFFFFFDE
FFFFFFBB
FFFFFFD2
FFFFFFC3
FFFFFF81
FFFFFFA9
FFFFFFD4
FFFFFFA7
FFFFFFC5
0000001F
00000040
0000002C
00000042
0000007F
0000005D
0000002A
0000005F
00000040
FFFFFFEC
FFFFFF9A
FFFFFF91
00000039
FFFFFFE8
FFFFFF81
0000007D
0000007B
FFFFFFEE
0000001F
0000003D
0000002B
0000003B
0000007F
00000059
00000029
00000059
0000003B
FFFFFFF3
FFFFFFD4
FFFFFFDD
FFFFFFD5
FFFFFF81
FFFFFFAF
FFFFFFE3
FFFFFFB1
FFFFFFCE
FFFFFFD2
FFFFFFA1
FFFFFFCB
FFFFFFBE
FFFFFF81
FFFFFFB0
FFFFFFCF
FFFFFF96
FFFFFFBF
0000001B
00000044
00000034
00000043
0000007F
0000004C
00000032
0000004F
00000023
00000019
0000002D
0000002A
00000034
0000007F
0000006E
00000027
00000068
00000058
FFFFFFC7
FFFFFF81
FFFFFFBD
FFFFFFBD
FFFFFF81
FFFFFFC3
FFFFFFE1
FFFFFFD9
0000000E
0000001E
0000003D
00000029
0000003B
0000007F
00000054
00000025
00000057
0000003E
FFFFFFD7
FFFFFFB9
FFFFFFD8
FFFFFFBA
FFFFFF81
FFFFFFAA
FFFFFFDA
FFFFFFAA
FFFFFFBA
0000001E
00000042
0000002E
00000040
0000007F
00000058
0000002E
00000059
00000037
00000030
00000043
0000001D
0000004F
0000007F
00000052
00000022
00000053
00000048
FFFFFFCE
FFFFFFBD
FFFFFFE1
FFFFFFC6
FFFFFF81
FFFFFF9B
FFFFFFEE
FFFFFF9D
FFFFFF9B
00000020
0000003F
0000002C
00000047
0000007F
00000056
00000034
00000059
0000003E
FFFFFF83
FFFFFF9A
00000007
FFFFFF81
FFFFFFEE
00000072
00000000
00000068
0000007D
FFFFFFD9
FFFFFFAE
FFFFFFC5
FFFFFFAE
FFFFFF81
FFFFFFAA
FFFFFFBE
FFFFFFAC
FFFFFFD4
FFFFFF81
FFFFFFA8
0000002A
FFFFFF96
FFFFFFF6
00000069
0000000E
0000005A
0000005E
FFFFFFEC
FFFFFFC9
FFFFFFD8
FFFFFFCF
FFFFFF81
FFFFFFA7
FFFFFFDD
FFFFFFA6
FFFFFFC4
FFFFFFDB
FFFFFFC6
FFFFFFCE
FFFFFFBA
FFFFFF81
FFFFFFB0
FFFFFFCC
FFFFFFC2
FFFFFFDD
FFFFFFE4
FFFFFFC1
FFFFFFD5
FFFFFFC3
FFFFFF81
FFFFFFB2
FFFFFFD0
FFFFFFAA
FFFFFFCC
00000014
0000003D
0000002E
0000003C
0000007F
00000054
00000038
00000054
0000002C
00000011
00000033
00000025
0000003E
0000007F
00000051
0000002D
00000058
00000039
0000001F
00000038
00000021
00000044
0000007F
00000058
00000021
00000054
00000046
0000001E
00000048
00000031
00000044
0000007F
0000004C
00000031
0000004E
00000028
00000038
00000034
0000003E
00000039
0000007F
0000006B
00000035
0000006A
00000060
FFFFFFFB
FFFFFFFC
FFFFFFFE
FFFFFFE8
0000007F
FFFFFFC1
FFFFFFF0
00000024
FFFFFFEB
00000003
FFFFFFF1
00000004
FFFFFFF8
0000007F
00000026
FFFFFFF6
00000029
0000000C
00000000
0000003C
00000042
FFFFFFB3
FFFFFF81
FFFFFFBF
00000020
FFFFFFEB
FFFFFFCE
FFFFFFFE
FFFFFFE0
FFFFFFF0
FFFFFFEC
0000007F
FFFFFFF5
FFFFFFFE
00000018
00000004
00000001
FFFFFFD1
00000028
FFFFFFF6
FFFFFF81
FFFFFF91
0000002E
FFFFFFB5
FFFFFFA9
FFFFFFEF
FFFFFFE9
00000015
FFFFFFF6
FFFFFF88
0000007F
00000002
FFFFFFC3
00000041
FFFFFFEF
00000021
00000025
FFFFFFD2
0000007F
00000013
0000000E
FFFFFFB7
FFFFFFEB
FFFFFFFB
FFFFFFE1
FFFFFFFA
FFFFFFF1
0000007F
0000000B
FFFFFFFB
00000007
00000000
FFFFFFFD
FFFFFFF0
FFFFFFCF
00000016
FFFFFF83
FFFFFF81
00000000
FFFFFF9C
FFFFFFCF
FFFFFFE9
FFFFFFD9
00000004
FFFFFFFE
0000007F
00000007
0000000F
FFFFFFD0
FFFFFFE4
00000011
00000028
FFFFFFDE
FFFFFFD2
0000007F
00000016
FFFFFFCB
FFFFFFCE
00000034
00000008
FFFFFFFD
FFFFFFF3
FFFFFFDB
0000007F
FFFFFFA8
FFFFFFDF
00000037
FFFFFFE3
FFFFFFE7
00000028
00000033
FFFFFFD6
0000007F
00000027
FFFFFFF5
FFFFFFBC
FFFFFFE9
00000003
FFFFFFEB
FFFFFFF3
FFFFFFE0
FFFFFFBB
FFFFFFCB
00000000
0000007F
00000025
00000021
FFFFFFE6
FFFFFFEB
00000042
00000045
FFFFFF81
00000014
00000003
FFFFFFE8
FFFFFFFD
FFFFFFE2
FFFFFFFB
FFFFFFDF
0000000C
00000060
0000000E
0000004D
FFFFFF81
FFFFFFEC
FFFFFFAA
FFFFFFE5
FFFFFFCF
0000007F
0000002E
FFFFFFFF
00000037
FFFFFFE9
00000006
00000033
00000021
00000015
FFFFFF81
FFFFFFDA
0000000E
00000012
0000001C
FFFFFFF4
0000000A
FFFFFFFC
FFFFFFFC
FFFFFF9F
0000007F
0000000B
FFFFFFD4
0000001D
FFFFFFFE
FFFFFFD9
FFFFFFF6
FFFFFFFF
FFFFFFB2
FFFFFFCD
00000006
0000007F
00000023
FFFFFFEE
FFFFFFF8
FFFFFFEC
FFFFFFF8
FFFFFF81
FFFFFFBF
FFFFFFF0
FFFFFFC2
FFFFFFEA
00000005
FFFFFFE9
FFFFFFF7
FFFFFFEA
0000007F
00000021
FFFFFFFF
0000001C
0000000C
FFFFFFF8
FFFFFFD9
00000013
FFFFFFE4
FFFFFF96
0000007F
FFFFFFE2
00000006
0000001B
FFFFFFBF
00000013
00000039
0000001A
FFFFFFB7
00000020
00000024
00000044
FFFFFF81
00000000
0000001A
00000011
FFFFFFFB
FFFFFF81
FFFFFFB9
00000008
FFFFFFCB
FFFFFFF9
FFFFFFEF
FFFFFFF3
FFFFFFF2
FFFFFFE6
0000007F
FFFFFFE9
FFFFFFDE
00000017
FFFFFFE3
FFFFFFF8
FFFFFFFE
0000001E
00000025
00000001
FFFFFF81
FFFFFF9E
FFFFFFF0
00000061
0000001C
FFFFFFFA
00000008
FFFFFFF3
0000007F
00000040
00000007
00000040
00000045
00000008
FFFFFFD0
00000010
FFFFFFF2
FFFFFFAB
0000007F
FFFFFFFA
FFFFFFBE
00000036
FFFFFFB4
00000010
FFFFFFA7
0000000C
FFFFFFBC
FFFFFFCD
FFFFFF9D
FFFFFFD5
FFFFFF81
FFFFFFEE
FFFFFFD9
0000001A
00000016
FFFFFF81
00000075
FFFFFFF5
FFFFFFCC
0000003B
00000007
00000025
FFFFFFE3
FFFFFFE0
0000005F
FFFFFFB1
0000000C
FFFFFF81
00000066
0000000A
00000019
00000019
FFFFFFEA
FFFFFF95
FFFFFF81
00000009
FFFFFFA7
FFFFFFD0
0000000B
FFFFFFD0
FFFFFFED
00000067
FFFFFF81
FFFFFFFE
00000029
FFFFFFBA
FFFFFFEB
FFFFFFF8
00000041
FFFFFFCB
FFFFFFEE
0000004B
FFFFFFC3
0000000D
FFFFFF81
00000067
FFFFFFEB
FFFFFFF6
FFFFFFFE
FFFFFFFF
FFFFFF95
FFFFFF90
00000000
0000007F
0000005A
FFFFFFFA
00000004
FFFFFFFB
00000015
FFFFFF81
00000000
00000000
FFFFFFF7
FFFFFFFD
FFFFFFFE
FFFFFFFA
FFFFFFD8
FFFFFFED
FFFFFFA4
FFFFFFB0
FFFFFFF0
FFFFFF85
FFFFFF81
FFFFFFFD
00000008
FFFFFFEF
00000007
0000007F
0000007C
FFFFFFF5
00000016
FFFFFFFF
FFFFFFFE
FFFFFFBF
FFFFFFE8
00000010
0000007F
00000036
FFFFFFF4
FFFFFFD7
FFFFFFEF
FFFFFFEE
FFFFFFE5
0000006D
FFFFFFE2
FFFFFF81
FFFFFFFC
00000060
0000000E
FFFFFFAE
FFFFFFF4
FFFFFFD7
FFFFFFE1
FFFFFFD7
FFFFFF81
FFFFFFA4
FFFFFFEC
FFFFFFA5
FFFFFFC3
00000024
00000001
FFFFFFF7
0000000E
FFFFFF81
FFFFFFE3
00000004
FFFFFFD0
0000003E
FFFFFFF1
00000032
00000005
FFFFFFD7
FFFFFFBC
0000007F
00000003
FFFFFFB4
FFFFFFF2
FFFFFFF9
FFFFFFF2
0000000F
FFFFFFC6
FFFFFFB6
0000007F
FFFFFFF2
FFFFFFE0
0000002D
00000001
FFFFFFF9
0000000A
00000009
FFFFFF81
FFFFFFE3
0000000C
FFFFFFCB
00000001
FFFFFFED
00000010
00000019
FFFFFF87
00000032
0000007F
FFFFFFD2
FFFFFFE5
00000019
FFFFFFF5
FFFFFFA9
FFFFFFF1
FFFFFFFC
0000007F
0000003D
00000020
00000008
00000019
FFFFFFFF
0000004D
00000025
FFFFFFF5
FFFFFF81
FFFFFFB6
00000004
00000058
00000022
0000001E
FFFFFFED
FFFFFFEF
0000007F
FFFFFF81
00000004
0000002F
FFFFFFD4
00000003
0000000B
FFFFFFCA
FFFFFFF8
FFFFFFDF
FFFFFF81
FFFFFFB4
FFFFFFED
FFFFFFCD
FFFFFFE7
FFFFFFF0
00000000
00000000
00000001
0000007F
FFFFFFE7
FFFFFFFE
FFFFFFF3
FFFFFFF1
FFFFFFD7
FFFFFFBF
FFFFFFCD
FFFFFFFD
0000002B
00000029
00000017
0000007F
00000036
FFFFFFFF
FFFFFFF0
FFFFFFF7
FFFFFFFD
FFFFFF91
0000007F
FFFFFFFD
FFFFFFF3
0000000F
0000000A
FFFFFF92
FFFFFFF2
FFFFFFA5
FFFFFFEE
FFFFFFA1
FFFFFFE3
FFFFFFB3
FFFFFF81
FFFFFFFC
FFFFFFE4
00000005
FFFFFFB7
0000007F
FFFFFFF9
FFFFFFF1
00000046
FFFFFFB0
FFFFFFF2
00000006
FFFFFFED
FFFFFFF6
0000007F
0000002F
FFFFFFFA
0000002E
00000003
00000006
00000024
00000012
00000047
FFFFFF81
00000034
00000018
FFFFFFF4
00000026
0000000C
00000040
00000017
FFFFFFF3
00000045
FFFFFFFE
00000003
FFFFFF81
FFFFFFE8
FFFFFFF2
00000009
00000007
FFFFFFDF
0000007F
FFFFFFD9
00000004
0000001A
FFFFFFDE
00000005
0000001C
0000000D
00000018
FFFFFF81
FFFFFFF6
0000000C
FFFFFFF4
0000000F
FFFFFFCB
FFFFFFC0
FFFFFFAC
FFFFFFC2
0000007F
FFFFFFC4
FFFFFFB2
FFFFFFD0
FFFFFF91
0000000B
FFFFFFAF
FFFFFFFC
0000003B
FFFFFFCE
FFFFFF81
0000002C
00000075
00000023
00000029
0000007F
0000002B
FFFFFFF2
FFFFFFC2
FFFFFFAD
00000005
FFFFFFC3
FFFFFFE9
00000001
00000004
FFFFFFF7
FFFFFFF3
0000007F
00000031
FFFFFFFB
0000001F
00000008
00000004
FFFFFFEB
FFFFFFFC
0000007F
FFFFFFD0
FFFFFFC3
00000029
FFFFFFD7
FFFFFFEE
00000000
00000040
FFFFFFFC
FFFFFFA5
00000010
0000007F
00000014
FFFFFFA2
FFFFFFE8
FFFFFFFF
FFFFFFE4
FFFFFFFE
FFFFFFEB
0000007F
0000002E
00000004
0000002E
00000009
00000005
00000007
FFFFFFFC
0000000A
FFFFFF81
FFFFFFCE
00000006
FFFFFFC2
00000016
FFFFFFFA
FFFFFFFA
FFFFFFFB
00000019
FFFFFF81
FFFFFFF8
00000009
FFFFFFDC
00000001
FFFFFFFF
FFFFFFE9
FFFFFFFC
FFFFFFFA
0000007F
0000001F
00000004
FFFFFFC0
FFFFFFE4
FFFFFFF1
0000000C
FFFFFFF2
FFFFFFF7
0000007F
FFFFFFD5
00000020
FFFFFF8A
00000025
00000000
FFFFFFE9
00000010
FFFFFFD6
FFFFFFA5
0000007F
FFFFFFF5
FFFFFFD7
0000002D
FFFFFFF9
FFFFFFEA
FFFFFFF2
FFFFFFE6
FFFFFF81
0000007B
FFFFFFF6
00000004
00000045
00000004
00000002
00000012
00000028
0000007C
0000003D
FFFFFFE2
FFFFFF81
FFFFFFB3
FFFFFFFF
FFFFFFEF
00000003
FFFFFFEF
0000007F
00000026
FFFFFFFD
00000021
00000003
00000003
FFFFFFFB
FFFFFFFF
00000063
00000020
FFFFFF81
00000009
FFFFFFEA
0000000E
00000003
FFFFFFD7
00000004
FFFFFFE5
0000007F
FFFFFFE0
00000004
FFFFFFD3
FFFFFFF5
FFFFFFFD
FFFFFFF2
FFFFFFF0
FFFFFFF3
FFFFFFB8
0000007F
0000000B
FFFFFFED
0000001F
00000002
FFFFFFE9
00000001
FFFFFFFC
0000007F
00000027
FFFFFFF3
0000002B
00000004
00000001
0000000B
FFFFFFF6
FFFFFFF3
0000007F
0000001E
FFFFFFF9
0000002D
0000000B
FFFFFFE6
FFFFFFE4
00000044
FFFFFFF4
FFFFFF92
00000047
00000035
00000057
FFFFFF81
FFFFFFFB
FFFFFFFB
FFFFFFFD
FFFFFFEF
FFFFFF81
FFFFFFA7
FFFFFFFA
FFFFFFDC
FFFFFFF5
FFFFFF9E
FFFFFFAB
FFFFFF98
FFFFFFE6
0000001B
FFFFFF97
FFFFFF99
FFFFFFDE
FFFFFF81
00000007
00000002
FFFFFFE3
FFFFFFFC
0000007F
0000000E
FFFFFFE7
FFFFFFF3
00000022
00000008
FFFFFFDE
FFFFFFFB
FFFFFFDD
0000007F
FFFFFFFA
FFFFFFFF
FFFFFFFA
FFFFFFF8
FFFFFFF7
FFFFFFE8
FFFFFFF4
FFFFFFFC
0000007F
0000000B
FFFFFFF1
FFFFFFCA
FFFFFFEF
FFFFFFFC
FFFFFFE9
00000019
FFFFFFC2
0000007F
FFFFFFE1
FFFFFFE9
0000003E
FFFFFFDB
00000011
FFFFFFFD
00000006
FFFFFFFC
FFFFFF81
FFFFFFD2
0000000D
FFFFFFCC
00000005
FFFFFFFA
00000005
FFFFFFF4
0000000F
FFFFFF81
00000032
00000013
FFFFFFC9
00000006
00000001
0000003B
FFFFFFFB
FFFFFF9E
00000079
0000007F
FFFFFFDA
FFFFFFB0
00000017
00000009
FFFFFFFE
00000006
FFFFFFF7
FFFFFF81
FFFFFFC1
00000005
FFFFFFCF
FFFFFFFB
00000011
FFFFFFE3
00000012
FFFFFFEE
FFFFFF81
FFFFFFC0
00000011
FFFFFFCC
00000002
FFFFFFFA
0000000E
FFFFFFF3
FFFFFFE0
0000007F
FFFFFFBE
FFFFFFEE
00000030
FFFFFFEA
FFFFFFFD
FFFFFFDE
0000000A
00000057
FFFFFF81
00000062
00000022
FFFFFFB7
0000001D
00000001
00000028
FFFFFFC1
00000006
0000003A
FFFFFFC5
FFFFFFE7
FFFFFF9F
0000007F
FFFFFFFF
FFFFFFB9
FFFFFFFE
00000039
0000004F
FFFFFF81
FFFFFFF6
0000003D
0000001A
0000001A
FFFFFFDC
00000017
FFFFFFD2
FFFFFF81
FFFFFFB6
0000000D
FFFFFFB9
FFFFFFFC
FFFFFFFC
FFFFFFFB
00000001
FFFFFFFB
0000007F
00000021
FFFFFFEC
0000002A
00000002
0000002A
0000007F
0000002A
00000002
FFFFFFD5
FFFFFFC0
FFFFFFEF
FFFFFFBC
FFFFFFD9
FFFFFFE4
00000011
FFFFFFE9
FFFFFFFD
0000007F
0000004E
FFFFFFE6
00000047
FFFFFFF4
00000036
00000029
FFFFFFDE
0000002B
FFFFFF91
FFFFFFAD
FFFFFFD3
FFFFFFBE
0000007F
FFFFFFF8
FFFFFFF2
0000000A
FFFFFFE4
0000007F
FFFFFFB9
FFFFFFF8
0000001A
FFFFFFEB
FFFFFFED
0000000D
FFFFFFDA
00000013
FFFFFF81
FFFFFFE9
FFFFFFDE
FFFFFFE3
FFFFFFD0
00000002
FFFFFFF5
FFFFFFFF
FFFFFFCF
0000007F
FFFFFFB4
FFFFFFF1
00000012
FFFFFFF8
FFFFFFCF
00000006
FFFFFFD3
0000000A
FFFFFF81
00000018
FFFFFFDE
FFFFFFFB
FFFFFFF4
00000002
FFFFFFF4
FFFFFFF2
0000000B
FFFFFF81
0000007C
00000018
FFFFFF9D
0000002C
FFFFFFF8
FFFFFFDB
FFFFFFF2
FFFFFFDB
0000007F
FFFFFFED
FFFFFFF7
FFFFFFEC
FFFFFFF1
FFFFFFF2
00000026
FFFFFFFA
00000012
00000067
FFFFFF99
0000000C
FFFFFF81
00000043
0000002A
FFFFFFE4
FFFFFFE5
00000001
00000073
FFFFFF81
FFFFFFDF
0000006A
FFFFFFEA
00000004
00000078
00000018
00000023
FFFFFF87
FFFFFF81
FFFFFFD6
0000000F
00000044
FFFFFFED
FFFFFFF9
00000018
FFFFFFEC
0000007F
00000026
00000007
00000030
FFFFFFE4
FFFFFFF8
00000017
FFFFFFF3
FFFFFFDC
0000007F
FFFFFFA1
0000001F
FFFFFFED
FFFFFFEF
FFFFFFD8
FFFFFFF0
0000004A
FFFFFFD9
FFFFFF81
FFFFFFF8
0000003F
FFFFFFEB
FFFFFFBD
FFFFFFF5
00000019
00000005
00000015
FFFFFF81
FFFFFFEB
00000006
FFFFFFF4
00000009
FFFFFFF0
0000000B
00000000
FFFFFFCE
FFFFFF87
FFFFFFA3
00000011
0000007F
00000040
FFFFFFFA
00000015
FFFFFFDC
FFFFFFEF
0000007F
00000021
FFFFFFF3
0000001E
00000022
FFFFFFF9
FFFFFFF1
FFFFFFEC
FFFFFFEC
0000007F
0000001B
FFFFFFF7
0000001F
FFFFFFFA
00000005
FFFFFFFC
0000000B
FFFFFFFE
FFFFFF81
FFFFFFE2
00000014
FFFFFFE4
FFFFFFFB
FFFFFFEC
FFFFFFC7
00000027
FFFFFFC6
00000051
00000040
00000036
00000016
FFFFFF81
00000004
FFFFFFE8
FFFFFFFD
FFFFFFF4
0000007F
00000031
00000008
00000027
00000017
FFFFFFF9
00000011
FFFFFFE6
FFFFFFD4
0000007F
FFFFFFB5
FFFFFFE4
0000002E
FFFFFFE5
0000000E
00000001
00000009
FFFFFFF4
0000007F
FFFFFFEC
00000006
FFFFFFDB
FFFFFFFF
FFFFFFF0
FFFFFFF4
FFFFFFF2
0000000E
0000007F
00000016
FFFFFFDF
00000010
00000019
0000000A
FFFFFFD7
00000003
FFFFFFEA
0000007F
00000015
00000003
00000036
0000001B
FFFFFFF0
FFFFFFFE
FFFFFFE9
FFFFFFE5
0000007F
0000005A
00000011
00000034
FFFFFFD5
00000028
00000002
FFFFFFDC
00000018
FFFFFF81
FFFFFF95
FFFFFFE0
FFFFFF98
00000060
FFFFFFCD
FFFFFFA4
FFFFFFA6
FFFFFFAA
FFFFFFBE
FFFFFF81
FFFFFFA8
FFFFFF89
FFFFFF90
FFFFFFEF
00000003
FFFFFFF7
FFFFFFEC
FFFFFFA5
0000007F
FFFFFFFC
FFFFFFAE
0000005D
0000001E
0000000D
FFFFFFB8
00000058
00000049
FFFFFF81
0000003B
00000030
FFFFFF88
FFFFFFD6
FFFFFFFC
00000025
0000000B
0000007F
FFFFFFB1
00000010
FFFFFFBE
FFFFFFF1
FFFFFFED
00000025
00000000
00000018
0000007F
FFFFFF99
00000023
FFFFFFB7
FFFFFFE9
00000009
00000015
FFFFFFEA
FFFFFFF0
FFFFFF88
0000007F
FFFFFFF5
00000008
0000000F
0000000B
FFFFFFD9
FFFFFFF8
00000004
0000007F
0000002C
00000006
0000000B
0000000F
FFFFFFFB
FFFFFFDC
FFFFFFEF
FFFFFFDC
0000007F
0000000B
FFFFFFF9
00000003
FFFFFFF4
FFFFFFFA
FFFFFFE5
FFFFFFFA
FFFFFFE9
0000007F
00000013
FFFFFFF5
0000001A
FFFFFFFD
00000000
0000001B
00000000
FFFFFFE6
FFFFFF81
FFFFFFC8
00000012
00000074
00000045
FFFFFFFE
FFFFFFF9
FFFFFFEF
FFFFFFF2
0000007F
00000000
FFFFFFE3
00000030
00000011
FFFFFF97
00000011
FFFFFF81
FFFFFFF9
FFFFFFC9
FFFFFFF2
FFFFFF90
FFFFFFFE
FFFFFFAD
FFFFFFF2
FFFFFFFE
FFFFFFE5
FFFFFFEB
0000007F
00000000
FFFFFFEA
FFFFFFF6
FFFFFFE3
FFFFFFF3
FFFFFFFB
FFFFFFEC
FFFFFFF4
0000007F
00000020
FFFFFFEA
00000025
FFFFFFF6
00000000
FFFFFFF7
FFFFFFF4
FFFFFFC6
0000007F
FFFFFFDB
0000000A
FFFFFFD4
0000000D
FFFFFFEC
0000000B
FFFFFFEE
00000011
0000007F
00000041
FFFFFFF1
00000039
00000006
0000000B
FFFFFFD7
FFFFFFD1
00000055
0000001D
FFFFFF81
0000001F
0000004A
FFFFFFE5
FFFFFFFC
FFFFFFE8
00000016
FFFFFFFC
FFFFFF99
FFFFFFA6
00000009
0000007F
0000003F
00000002
0000000B
00000009
0000001C
FFFFFF81
00000018
00000004
00000031
0000000D
0000000D
FFFFFFC4
00000004
FFFFFFC4
0000007F
FFFFFFD4
0000000E
FFFFFFCA
00000006
FFFFFFF1
00000004
FFFFFFFF
FFFFFFF8
0000007F
0000001D
00000005
0000001D
FFFFFFEF
00000043
00000058
00000003
0000007F
0000004F
FFFFFFDB
0000001C
0000000B
FFFFFFC4
FFFFFFFB
FFFFFF93
FFFFFFF8
FFFFFF84
00000065
FFFFFF87
00000004
FFFFFF81
FFFFFFFC
00000019
0000007F
0000002E
00000029
0000005C
00000024
FFFFFFF3
FFFFFFB6
FFFFFFCA
FFFFFFFA
00000017
FFFFFFED
00000013
0000007C
FFFFFF81
00000012
00000014
FFFFFFCF
0000001C
0000000C
00000030
00000002
0000007E
00000036
FFFFFFE9
FFFFFF81
0000001E
0000002E
00000003
0000000B
00000014
0000007F
0000005F
00000015
00000051
00000013
FFFFFFF6
FFFFFFDA
FFFFFFD0
FFFFFFCF
FFFFFFF5
FFFFFFD8
FFFFFFE2
FFFFFFBB
FFFFFF81
FFFFFFBB
FFFFFF88
FFFFFFC8
FFFFFF81
FFFFFFF9
0000006F
FFFFFFC1
0000004D
00000056
FFFFFFFC
FFFFFF90
FFFFFFF4
FFFFFFAF
FFFFFFAC
00000033
FFFFFFF4
0000007F
0000007A
FFFFFFE3
FFFFFFD4
FFFFFFC4
00000008
FFFFFF81
FFFFFFC0
FFFFFFD9
FFFFFFA2
FFFFFFB0
FFFFFFCC
FFFFFF8C
FFFFFFB4
FFFFFF85
0000005B
FFFFFF84
FFFFFF81
FFFFFF87
FFFFFF8E
FFFFFFFA
FFFFFFD5
FFFFFFE8
FFFFFFDD
0000007F
FFFFFFFD
FFFFFFE6
FFFFFFFB
FFFFFFE2
FFFFFFF6
FFFFFFE8
0000000A
0000004F
FFFFFF81
00000000
0000002B
FFFFFFEB
FFFFFFEA
00000013
0000000A
FFFFFFC4
0000007F
FFFFFFD4
FFFFFF99
0000002F
FFFFFFEC
FFFFFFBA
FFFFFFED
0000000C
FFFFFFFE
FFFFFFFC
FFFFFF81
00000009
FFFFFFF4
FFFFFFF3
FFFFFFDA
FFFFFFF8
00000057
00000011
FFFFFFD6
FFFFFFE4
0000007F
00000015
FFFFFF8B
FFFFFFCC
00000000
0000001A
0000000B
00000016
FFFFFF81
FFFFFFEE
00000008
FFFFFFF1
00000009
FFFFFFFB
00000044
00000011
FFFFFFF7
FFFFFF81
FFFFFFEB
FFFFFFEB
FFFFFFE5
FFFFFFD5
FFFFFFF4
FFFFFFF5
00000004
00000008
0000007F
FFFFFFD5
00000002
FFFFFFB4
FFFFFFE3
00000010
FFFFFFE6
FFFFFFBA
0000001D
FFFFFFAC
FFFFFFD8
FFFFFFF3
FFFFFF81
0000002F
00000017
00000024
FFFFFFC8
00000005
FFFFFF81
0000004D
FFFFFFF0
00000033
0000000B
FFFFFFF6
FFFFFFE2
FFFFFFE7
FFFFFFE0
0000007F
00000009
FFFFFFEA
0000000A
FFFFFFE9
0000000D
FFFFFFED
FFFFFFF8
00000019
FFFFFF81
0000003E
FFFFFFFF
FFFFFFFD
00000002
FFFFFFEB
0000000F
FFFFFFEA
FFFFFFFC
0000007F
00000026
FFFFFFF1
00000039
00000000
FFFFFFEB
FFFFFFFA
FFFFFFEE
FFFFFFF5
0000007F
0000002D
FFFFFFE6
00000035
FFFFFFF4
FFFFFFF8
FFFFFFB3
FFFFFFE4
FFFFFFED
FFFFFFD6
FFFFFFE9
00000011
0000007F
0000002E
FFFFFFFC
0000001D
00000006
00000021
FFFFFF81
FFFFFFFA
0000000A
00000002
00000004
0000000A
0000007F
0000002F
00000000
FFFFFFE8
00000026
FFFFFFF7
FFFFFFA0
FFFFFFF6
FFFFFFFF
FFFFFFEC
00000014
00000007
0000007F
FFFFFF93
00000005
00000021
00000009
00000001
FFFFFFDB
FFFFFFF5
FFFFFFDD
0000007F
0000000B
FFFFFFF7
0000000A
FFFFFFF8
0000000A
0000007F
0000002E
0000000B
FFFFFFC9
FFFFFFC1
FFFFFFFA
FFFFFFBC
FFFFFFFF
0000000B
FFFFFFF3
0000000A
FFFFFFDD
0000007F
00000021
FFFFFFDF
00000057
00000029
FFFFFFFF
0000001A
00000003
FFFFFFD4
FFFFFFD1
0000007F
FFFFFFFF
FFFFFFCC
00000002
FFFFFFFF
00000003
FFFFFFFC
FFFFFFEE
0000007F
00000015
00000005
FFFFFF8A
FFFFFFF0
FFFFFFE4
FFFFFFED
FFFFFFF9
FFFFFFEA
0000007F
FFFFFFEB
FFFFFFF4
FFFFFFFA
FFFFFFE4
FFFFFFF6
FFFFFFF1
FFFFFFF0
FFFFFFFE
0000007F
00000033
FFFFFFF3
0000003A
0000000E
00000004
0000000A
00000010
FFFFFFF8
FFFFFF81
FFFFFFCA
0000000A
FFFFFFE1
00000005
00000008
FFFFFFFC
00000011
00000003
FFFFFF81
FFFFFFD6
00000014
FFFFFFC2
00000005
FFFFFFFE
FFFFFFF0
FFFFFFF3
FFFFFFF0
0000007F
0000001F
FFFFFFF5
00000014
FFFFFFF7
FFFFFFFD
FFFFFFF5
FFFFFFEA
00000003
0000007F
00000017
FFFFFFE2
00000022
00000009
00000005
00000007
00000000
00000014
0000007F
0000007C
00000001
00000023
00000013
FFFFFFF4
FFFFFF92
FFFFFFD4
00000042
00000076
FFFFFF81
FFFFFFFA
00000079
0000000D
FFFFFFDF
FFFFFFC4
00000011
FFFFFFB2
0000007F
00000028
00000009
00000029
FFFFFFA8
FFFFFFFC
FFFFFFC8
FFFFFFE2
FFFFFFF1
FFFFFF81
FFFFFFDB
FFFFFFE7
0000001E
FFFFFFFC
FFFFFFF1
FFFFFFFA
00000017
00000006
FFFFFF81
00000050
00000018
00000068
FFFFFF9B
00000017
00000011
00000020
FFFFFFB6
FFFFFF81
FFFFFF92
00000020
00000049
0000002F
00000005
0000000D
0000000E
0000000F
FFFFFF81
FFFFFFE2
00000010
FFFFFFE3
0000000C
FFFFFFEC
0000000C
FFFFFFF1
00000014
0000007F
0000002F
FFFFFFE8
0000002D
00000004
00000008
00000006
00000037
00000015
FFFFFF81
00000002
00000045
FFFFFFFC
00000020
FFFFFFFD
00000014
00000000
00000005
FFFFFF81
FFFFFFCB
00000002
FFFFFFCF
FFFFFFF7
00000029
FFFFFFBF
0000002D
FFFFFFD7
FFFFFF81
FFFFFF8B
00000021
FFFFFF9A
00000001
0000000E
FFFFFFCD
FFFFFFFA
FFFFFFF9
FFFFFFC1
FFFFFFDD
FFFFFFF9
0000007F
00000023
00000005
FFFFFFE0
00000010
FFFFFFD1
FFFFFFAF
0000007F
FFFFFFF9
FFFFFFEB
0000001E
00000014
FFFFFFC3
FFFFFFE9
FFFFFF91
FFFFFFC7
FFFFFF81
FFFFFFEE
FFFFFF8F
FFFFFFB9
FFFFFFF9
FFFFFFE7
FFFFFFDD
FFFFFFE5
0000007F
FFFFFFE7
FFFFFFE5
FFFFFFE4
FFFFFFFB
FFFFFFFD
00000000
00000007
00000003
0000007F
0000004C
FFFFFFF8
00000012
00000007
00000006
FFFFFFF0
FFFFFFFC
FFFFFFF8
0000007F
00000039
FFFFFFF9
0000003E
0000001F
FFFFFFF6
0000002B
00000010
00000009
FFFFFF81
FFFFFFBF
FFFFFFEF
00000063
00000029
00000006
0000007F
FFFFFFD9
FFFFFF88
FFFFFFC5
00000003
0000001D
0000003E
FFFFFFF8
FFFFFFDD
0000002D
00000017
0000001E
0000007F
FFFFFFFF
0000002B
00000003
FFFFFFA1
0000000E
00000005
0000001C
00000000
FFFFFF81
FFFFFFD1
00000017
FFFFFFD7
0000000E
FFFFFFDA
FFFFFFDD
FFFFFFE5
FFFFFFAB
0000007F
00000018
FFFFFFFF
FFFFFFF9
FFFFFFFB
FFFFFFFA
FFFFFFE3
FFFFFFF7
FFFFFFE8
0000007F
00000019
FFFFFFF2
00000032
00000025
00000000
FFFFFFF1
FFFFFFF7
FFFFFFE0
0000007F
FFFFFFFC
FFFFFFFD
00000013
FFFFFFFF
FFFFFFFF
00000001
00000003
FFFFFFFE
FFFFFF86
FFFFFFBA
FFFFFFF5
0000007F
00000023
00000007
FFFFFFF9
00000001
FFFFFFFB
FFFFFFD6
FFFFFFEB
FFFFFFF7
0000007F
FFFFFFFE
00000005
FFFFFFEE
FFFFFFF8
FFFFFFE5
0000007F
00000020
00000004
00000017
0000000A
FFFFFFF4
FFFFFFCD
FFFFFFEA
00000007
0000007F
00000052
00000020
FFFFFFC2
FFFFFFDB
00000004
FFFFFFF2
FFFFFFEE
FFFFFFF9
0000007F
00000041
FFFFFFEE
FFFFFFA5
FFFFFFCC
00000004
00000003
FFFFFFFB
FFFFFFEE
0000007F
FFFFFFE5
FFFFFFFF
FFFFFFEB
00000001
FFFFFFF6
FFFFFFE3
FFFFFFF8
00000004
FFFFFFB8
FFFFFFA8
00000014
0000007F
0000003B
FFFFFFE6
FFFFFFF8
FFFFFFDD
FFFFFFF1
0000007F
00000010
FFFFFFDF
00000006
FFFFFFE0
0000000A
FFFFFFDE
FFFFFFF3
FFFFFFE4
0000007F
0000002B
FFFFFFF5
0000002D
FFFFFFF6
00000001
FFFFFFF6
FFFFFFEC
FFFFFFE6
FFFFFF81
00000026
FFFFFFF1
00000062
00000050
00000016
FFFFFFB6
00000025
0000000F
FFFFFF81
00000025
0000002B
FFFFFF96
0000002E
FFFFFFE7
FFFFFFB3
FFFFFFAA
FFFFFFB6
FFFFFFC2
FFFFFFAA
FFFFFFA7
FFFFFFC5
FFFFFF81
0000000B
00000027
00000013
FFFFFFEE
FFFFFF81
FFFFFFC7
00000006
00000039
0000001C
FFFFFFFB
FFFFFFED
FFFFFFED
FFFFFFF7
0000007F
00000013
FFFFFFE7
00000022
FFFFFFF5
FFFFFFF9
FFFFFFED
00000018
FFFFFFDD
FFFFFFA8
0000007F
FFFFFFF3
FFFFFFD8
00000032
FFFFFFF6
00000013
FFFFFFFB
00000010
FFFFFF81
FFFFFFCD
0000000A
FFFFFFD7
FFFFFFF5
0000000F
FFFFFFDB
FFFFFFE2
FFFFFFF9
0000007F
0000003D
FFFFFFFD
FFFFFFC8
FFFFFFEA
FFFFFFFC
00000006
00000006
0000000F
FFFFFF81
FFFFFFEC
00000008
FFFFFFE7
0000000C
FFFFFFFB
FFFFFFB9
00000054
FFFFFFF5
FFFFFFBF
00000020
FFFFFFFA
0000007F
FFFFFF8E
FFFFFFFF
FFFFFFEB
00000020
0000000C
FFFFFF94
0000007F
FFFFFFEF
FFFFFFE2
00000039
FFFFFFE3
FFFFFFC0
FFFFFFEC
FFFFFFAC
FFFFFFCE
00000046
00000008
0000007F
00000031
FFFFFFF5
FFFFFFEF
00000018
0000001E
00000070
FFFFFF81
FFFFFFEB
FFFFFFDB
0000004B
FFFFFFBA
00000034
FFFFFFD0
0000003D
0000007F
00000066
FFFFFFC6
00000077
0000000A
FFFFFFD1
FFFFFFE2
FFFFFFBA
FFFFFFF2
0000003E
FFFFFF95
FFFFFF81
FFFFFFAD
FFFFFFE1
FFFFFFF1
FFFFFF90
FFFFFFDE
00000014
00000029
FFFFFFA1
00000009
0000007F
0000002C
FFFFFFE0
0000004A
FFFFFFEC
0000004A
FFFFFFEB
FFFFFFAC
FFFFFFFA
FFFFFF81
00000050
00000008
0000002D
FFFFFFF6
FFFFFFB1
FFFFFFAC
0000007F
00000027
00000035
FFFFFF8D
FFFFFFF7
0000001D
FFFFFFEB
FFFFFFBE
0000007F
FFFFFFB7
FFFFFFEB
0000001D
FFFFFFF0
FFFFFFFA
00000005
FFFFFFE3
FFFFFFF0
0000007F
00000021
FFFFFFDD
0000001F
FFFFFFF1
FFFFFFF4
FFFFFFDB
FFFFFFE1
FFFFFFD9
0000007F
00000000
FFFFFFEB
FFFFFFFD
FFFFFFE8
FFFFFFFD
FFFFFFC6
FFFFFFEC
00000006
0000007F
00000012
FFFFFFF9
FFFFFFB6
FFFFFFF9
FFFFFFF9
00000002
0000000B
FFFFFFED
FFFFFFC1
0000007F
00000004
FFFFFFAB
0000003E
FFFFFFFC
FFFFFFFC
00000037
00000015
0000007C
FFFFFF81
00000018
FFFFFF9F
0000002C
0000000C
00000020
FFFFFFB4
FFFFFFFE
0000007F
00000037
FFFFFFF2
FFFFFFE8
00000034
00000003
0000007F
00000012
00000028
00000035
FFFFFFA6
FFFFFFF7
FFFFFF97
FFFFFFEE
0000000E
00000008
FFFFFFFE
FFFFFFF0
0000007F
FFFFFFE0
FFFFFFFF
FFFFFFD8
00000008
00000003
00000012
00000007
00000006
FFFFFF81
FFFFFFEA
00000004
FFFFFFF8
00000006
FFFFFFF8
FFFFFFC2
FFFFFFD9
FFFFFFC0
FFFFFF81
FFFFFFA7
FFFFFFDE
FFFFFF8E
FFFFFFBE
00000014
FFFFFFC3
FFFFFFB8
00000004
0000007F
0000003D
FFFFFFE8
FFFFFFB8
0000001C
00000010
FFFFFFAB
FFFFFFE2
00000056
00000041
FFFFFF81
FFFFFFEE
00000062
FFFFFFEE
FFFFFFFC
FFFFFFD8
FFFFFFE8
FFFFFFDE
0000007F
00000011
FFFFFFF1
FFFFFFFB
FFFFFFE5
FFFFFFFF
FFFFFFE0
FFFFFFF4
FFFFFFDE
0000007F
00000006
FFFFFFF2
00000018
FFFFFFF6
00000002
0000001A
00000007
00000015
0000007F
FFFFFFDC
FFFFFFF3
FFFFFFAE
FFFFFFCF
FFFFFFFC
FFFFFFFD
FFFFFFEA
FFFFFFF6
0000007F
0000003E
FFFFFFF8
0000002D
00000004
00000029
0000004C
00000033
0000004B
0000007F
0000005C
0000003E
0000006B
00000051
0000001C
0000003D
0000002F
00000034
0000007F
0000005C
00000033
0000005E
00000041
00000027
00000049
0000003C
0000004C
0000007F
0000006C
0000003D
0000006D
0000005B
FFFFFFD8
FFFFFFC2
FFFFFFDA
FFFFFFBD
FFFFFF81
FFFFFFA5
FFFFFFD4
FFFFFFA8
FFFFFFB1
FFFFFFDF
FFFFFFC2
FFFFFFD3
FFFFFFC4
FFFFFF81
FFFFFFA3
FFFFFFD6
FFFFFFA3
FFFFFFB8
00000021
00000044
0000002B
0000003F
0000007F
00000059
0000002B
0000005A
00000043
FFFFFFCC
FFFFFFAB
FFFFFFC0
FFFFFFAF
FFFFFF81
FFFFFF99
FFFFFFC6
FFFFFFAD
FFFFFFBC
00000049
00000064
00000059
00000055
0000007F
0000006D
00000034
00000060
00000050
FFFFFFCD
FFFFFFD8
00000031
FFFFFFD0
FFFFFF81
00000071
FFFFFFE7
FFFFFF83
00000050
FFFFFFEA
FFFFFFD5
0000003E
FFFFFFDD
FFFFFFEB
0000007F
FFFFFFE8
FFFFFFEA
0000005B
0000003D
00000037
FFFFFFBC
0000006A
0000004F
FFFFFF81
0000004F
0000001F
FFFFFF93
FFFFFFDC
FFFFFFBF
FFFFFFD0
FFFFFFBE
FFFFFF81
FFFFFFA5
FFFFFFCE
FFFFFF9E
FFFFFFBB
FFFFFFD8
FFFFFFB7
FFFFFFD3
FFFFFFC0
FFFFFF81
FFFFFFB8
FFFFFFDE
FFFFFFBA
FFFFFFD3
00000038
00000052
0000003D
00000051
0000007F
00000063
0000003E
00000069
00000053
0000001C
00000038
00000028
00000040
0000007F
00000058
00000035
00000060
00000044
FFFFFFD0
FFFFFFA8
FFFFFFC0
FFFFFFAA
FFFFFF81
FFFFFF91
FFFFFFCC
FFFFFFA3
FFFFFFB5
00000022
00000041
FFFFFFFB
0000006A
00000044
FFFFFFAF
00000028
FFFFFFFC
FFFFFF81
FFFFFFD9
FFFFFFBF
FFFFFFD3
FFFFFFBD
FFFFFF81
FFFFFFAC
FFFFFFD9
FFFFFFAC
FFFFFFC5
FFFFFFD7
FFFFFFAD
FFFFFFBA
FFFFFFB5
FFFFFF81
FFFFFF95
FFFFFFC9
FFFFFF9B
FFFFFFB8
0000001E
0000003B
0000002D
00000039
0000007F
00000061
0000002D
00000065
0000004F
0000002A
00000052
0000004B
00000048
0000007F
00000070
00000038
00000065
00000052
FFFFFFF1
FFFFFF85
00000037
FFFFFF81
FFFFFFFD
0000007C
FFFFFFB7
00000070
00000047
00000053
00000074
FFFFFFE7
0000007F
00000049
FFFFFFBA
FFFFFFE5
FFFFFFBA
FFFFFF88
00000023
0000003A
00000021
00000043
0000007F
0000004D
0000002F
00000053
00000036
FFFFFFD7
FFFFFFB4
FFFFFFD4
FFFFFFBC
FFFFFF81
FFFFFFAE
FFFFFFD7
FFFFFFAD
FFFFFFC9
FFFFFF99
FFFFFF81
FFFFFFDA
FFFFFFB6
FFFFFFB0
FFFFFFE2
0000001E
0000003F
0000002D
FFFFFFDB
FFFFFFA4
FFFFFFC5
FFFFFFB5
FFFFFF8E
FFFFFFB8
0000004E
0000007F
00000070
0000000A
FFFFFFBD
FFFFFFA6
00000031
FFFFFFDF
FFFFFF81
00000042
00000045
FFFFFFEB
00000027
00000049
00000034
00000044
0000007F
0000005B
00000031
00000059
0000003F
00000001
FFFFFFBE
FFFFFF9B
00000046
0000007F
0000005B
FFFFFFCA
FFFFFFE6
00000016
00000009
0000003A
0000003F
00000040
0000007F
0000006F
00000045
0000005A
0000003C
FFFFFFEE
FFFFFFBC
FFFFFFC3
FFFFFFCC
FFFFFF81
FFFFFFAC
FFFFFFDA
FFFFFFC2
FFFFFFE0
FFFFFFE0
FFFFFFBF
FFFFFFCE
FFFFFFC1
FFFFFF81
FFFFFF9F
FFFFFFCE
FFFFFFA7
FFFFFFBB
FFFFFFE9
FFFFFFC3
FFFFFFCB
FFFFFFCA
FFFFFF81
FFFFFF9F
FFFFFFD5
FFFFFF9B
FFFFFFB6
00000037
00000053
00000032
00000048
0000007F
0000005F
00000027
00000056
00000051
FFFFFFD9
FFFFFFAE
FFFFFFC7
FFFFFFBF
FFFFFF81
FFFFFFA9
FFFFFFD7
FFFFFFAF
FFFFFFCB
FFFFFFCE
FFFFFFF1
00000022
FFFFFFC9
00000038
0000006E
00000025
0000007F
00000062
00000024
00000041
0000003B
0000003B
0000007F
00000057
00000033
0000005F
0000003B
FFFFFFDE
FFFFFF99
FFFFFFC5
FFFFFFC5
FFFFFF81
FFFFFFC9
00000004
00000018
00000028
00000036
00000051
00000036
0000004C
0000007F
0000005E
0000002E
0000005C
00000045
00000035
00000042
0000001F
0000004E
0000007F
00000056
0000002A
0000005C
0000004F
FFFFFFE4
FFFFFFCE
FFFFFFC4
FFFFFFB0
FFFFFF81
FFFFFF93
FFFFFFBD
FFFFFFA9
FFFFFFCE
FFFFFFD8
FFFFFFB2
FFFFFFCE
FFFFFFB7
FFFFFF81
FFFFFFB0
FFFFFFCA
FFFFFFAD
FFFFFFD0
00000033
00000052
0000003F
00000049
0000007F
0000005E
00000045
00000062
0000003D
00000024
00000045
00000038
0000003F
0000007F
00000067
0000002C
00000063
00000051
FFFFFFE0
FFFFFFBE
FFFFFFD1
FFFFFFC1
FFFFFF81
FFFFFFA9
FFFFFFD3
FFFFFFAA
FFFFFFC2
00000036
0000004F
00000036
00000054
0000007F
00000054
0000003E
00000062
00000044
FFFFFFC9
FFFFFF81
FFFFFFC5
FFFFFFD2
FFFFFFBB
FFFFFFFA
0000002D
00000070
00000064
0000002E
00000051
00000041
00000041
0000007F
00000062
00000036
00000061
00000049
FFFFFFDE
FFFFFFB5
FFFFFFCC
FFFFFFC1
FFFFFF81
FFFFFFA0
FFFFFFD7
FFFFFFA4
FFFFFFBE
0000001E
00000046
0000002D
00000040
0000007F
0000005C
0000002E
00000056
0000003D
00000025
FFFFFFE0
FFFFFFAB
00000046
FFFFFFEF
FFFFFF81
00000030
0000000A
FFFFFFBA
FFFFFFD4
FFFFFFB4
FFFFFFD1
FFFFFFC1
FFFFFF81
FFFFFFAE
FFFFFFD3
FFFFFFA9
FFFFFFCC
0000002A
0000004E
00000040
FFFFFFEE
FFFFFFC3
FFFFFFDF
FFFFFFC0
FFFFFF81
FFFFFF9F
0000002E
0000004A
00000039
00000042
0000007F
00000061
0000002F
0000005F
00000044
00000023
00000042
0000002E
00000040
0000007F
00000060
00000029
00000058
00000043
FFFFFFD9
FFFFFFAC
FFFFFFB6
FFFFFFB4
FFFFFF81
FFFFFF9C
FFFFFFC4
FFFFFF9C
FFFFFFC2
FFFFFFDB
FFFFFFBC
FFFFFFCF
FFFFFFBC
FFFFFF81
FFFFFFA0
FFFFFFD5
FFFFFFA6
FFFFFFBE
00000030
00000061
00000041
00000007
00000034
0000001B
FFFFFFB0
FFFFFF81
FFFFFFA3
00000022
00000046
00000033
00000044
0000007F
00000062
00000031
00000060
0000004E
FFFFFFD4
FFFFFFB8
FFFFFFC0
FFFFFFBD
FFFFFF81
FFFFFF99
FFFFFFCB
FFFFFFA7
FFFFFFB4
0000001C
00000039
00000023
00000047
0000007F
00000050
00000032
00000061
00000045
00000026
0000004B
0000002F
00000043
0000007F
0000005C
00000031
00000056
00000045
00000023
0000004B
00000043
00000050
0000007F
00000056
00000044
0000005C
0000002D
00000016
00000043
00000038
00000046
0000007F
00000055
00000039
0000004A
0000002B
FFFFFFC4
FFFFFF8A
FFFFFF9F
FFFFFFF2
FFFFFFFF
FFFFFFEB
0000004E
0000007F
0000005B
FFFFFFE0
FFFFFFBF
FFFFFFD0
FFFFFFC4
FFFFFF81
FFFFFFA0
FFFFFFD2
FFFFFFA5
FFFFFFBD
FFFFFFFE
FFFFFFB9
FFFFFFA1
00000036
00000001
FFFFFF99
0000005D
0000007F
00000009
0000003E
0000005C
00000040
00000051
0000007F
00000055
00000030
00000048
00000030
00000028
00000048
00000033
00000042
0000007F
0000005F
00000029
00000059
00000042
00000023
0000003D
00000035
0000003F
0000007F
0000006F
00000039
00000073
0000005F
00000015
00000066
0000005C
FFFFFFD0
00000010
0000004E
FFFFFF9C
FFFFFF81
FFFFFFD7
FFFFFFCB
FFFFFFD0
FFFFFFE3
00000009
FFFFFFD0
FFFFFF96
00000042
0000007F
0000006A
00000020
00000041
0000002D
0000003E
0000007F
00000062
0000002C
00000060
00000046
FFFFFFE1
FFFFFFC2
FFFFFFD0
FFFFFFCE
FFFFFF81
FFFFFFA3
FFFFFFD8
FFFFFFA4
FFFFFFBA
FFFFFFC3
FFFFFFA5
FFFFFFBD
FFFFFFA7
FFFFFF81
FFFFFF9B
FFFFFFC2
FFFFFF99
FFFFFFB1
FFFFFFCA
FFFFFF97
FFFFFFC4
FFFFFFB1
FFFFFF81
FFFFFFA6
FFFFFFC7
FFFFFF97
FFFFFFB6
00000014
00000044
00000035
0000002E
0000007F
0000006C
00000027
00000069
00000058
FFFFFFC9
FFFFFFE9
00000038
FFFFFF87
FFFFFFF4
0000007F
FFFFFF9C
FFFFFFF7
00000073
00000026
00000043
0000002A
00000042
0000007F
00000051
00000030
0000005A
00000041
0000001E
00000039
0000002F
00000048
0000007F
0000005E
00000036
00000060
00000044
00000016
00000042
00000043
00000041
0000007F
00000064
0000003E
0000005E
0000003A
00000025
0000003C
00000035
00000047
0000007F
0000006A
0000003D
00000074
00000063
FFFFFFEA
FFFFFFCB
FFFFFFD8
FFFFFFC9
FFFFFF81
FFFFFFA0
FFFFFFD0
FFFFFFA1
FFFFFFB4
FFFFFFE6
FFFFFFCC
FFFFFFD7
FFFFFFC6
FFFFFF81
FFFFFFA6
FFFFFFD5
FFFFFFAB
FFFFFFC0
0000003D
FFFFFFEA
FFFFFFC7
0000005B
00000032
FFFFFF81
0000004F
00000062
FFFFFF99
0000002A
0000004F
00000034
00000042
0000007F
0000004D
00000024
00000045
0000002C
FFFFFFC4
FFFFFF9F
FFFFFFC1
FFFFFFA4
FFFFFF81
FFFFFF90
FFFFFFB8
FFFFFF86
FFFFFFA3
FFFFFFDA
FFFFFFC0
FFFFFFCB
FFFFFFA4
FFFFFF81
FFFFFFB4
FFFFFFC6
FFFFFFA9
FFFFFFCB
00000022
00000044
0000002D
0000003E
0000007F
0000005A
00000026
00000051
0000003D
FFFFFFC6
FFFFFFBD
FFFFFFDA
FFFFFFA4
FFFFFF81
FFFFFFB6
FFFFFFB8
FFFFFFA5
FFFFFFCE
00000027
0000004A
00000035
00000049
0000007F
00000055
00000034
00000051
00000033
00000039
00000057
0000002C
0000004A
0000007F
0000005C
00000029
00000052
00000048
0000002F
0000005F
0000004B
FFFFFFF2
0000001B
00000031
FFFFFFD3
FFFFFF81
FFFFFFB4
FFFFFFF7
FFFFFFBD
FFFFFFB4
FFFFFFC7
FFFFFF81
FFFFFF97
FFFFFFB9
FFFFFF9A
FFFFFFD6
FFFFFFDF
FFFFFFC0
FFFFFFCD
FFFFFFB8
FFFFFF81
FFFFFFAA
FFFFFFBB
FFFFFFA6
FFFFFFBA
FFFFFFCF
FFFFFFB1
FFFFFFB7
FFFFFFAC
FFFFFF81
FFFFFF8B
FFFFFFCC
FFFFFFA0
FFFFFFAD
FFFFFFE3
FFFFFFC3
FFFFFFD4
FFFFFFC7
FFFFFF81
FFFFFFA2
FFFFFFD6
FFFFFFAC
FFFFFFBE
0000002C
0000003B
0000001F
00000046
0000007F
00000055
00000022
00000054
00000047
FFFFFFB3
FFFFFF97
FFFFFFB3
00000034
0000007F
00000059
FFFFFFF7
FFFFFFEC
FFFFFFF8
00000029
00000046
0000002C
00000037
0000007F
00000058
00000024
00000058
00000046
FFFFFFDE
FFFFFFC3
FFFFFFD1
FFFFFFBD
FFFFFF81
FFFFFF9E
FFFFFFCE
FFFFFF9F
FFFFFFAE
0000003D
00000052
0000004B
0000004E
0000007F
00000064
0000003F
00000062
0000004E
FFFFFFED
FFFFFFFB
FFFFFFF4
FFFFFFD5
FFFFFFAD
FFFFFFDA
0000002F
0000007F
0000005D
FFFFFFE7
FFFFFFBA
FFFFFFC2
FFFFFFBC
FFFFFF81
FFFFFF96
FFFFFFCB
FFFFFF99
FFFFFFB1
FFFFFFD9
FFFFFFAF
FFFFFFBF
FFFFFFBC
FFFFFF81
FFFFFFA2
FFFFFFCC
FFFFFFA5
FFFFFFC3
0000001B
00000040
0000002D
0000003F
0000007F
00000056
00000034
00000052
00000033
FFFFFFDE
FFFFFFBC
FFFFFFCE
FFFFFFC0
FFFFFF81
FFFFFF9C
FFFFFFD1
FFFFFF9D
FFFFFFB3
FFFFFFEF
FFFFFFD3
FFFFFFF2
0000003B
0000007F
00000055
FFFFFFD8
FFFFFFB1
FFFFFFC8
FFFFFFE6
FFFFFFC9
FFFFFFD6
FFFFFFCD
FFFFFF81
FFFFFFA0
FFFFFFDB
FFFFFFA7
FFFFFFBB
FFFFFFE3
FFFFFFBC
FFFFFFCF
FFFFFFCE
FFFFFF81
FFFFFFA3
FFFFFFDC
FFFFFFAB
FFFFFFBA
00000041
00000052
0000000D
00000046
0000007F
00000057
FFFFFFCE
00000058
00000058
0000002D
0000002D
FFFFFFF1
0000004D
0000007F
00000048
00000023
0000006D
00000059
00000031
00000058
00000041
0000004F
0000007F
00000064
00000040
00000061
0000004B
FFFFFFD6
FFFFFFAF
FFFFFFB4
FFFFFFA7
FFFFFF81
FFFFFF99
FFFFFFA9
FFFFFF8A
FFFFFFCB
0000002E
00000053
0000004B
0000004A
0000007F
00000065
00000035
0000005E
00000041
FFFFFFF1
FFFFFFB3
FFFFFFAA
FFFFFFC9
FFFFFF81
FFFFFFA1
FFFFFFB8
FFFFFF9A
FFFFFFD0
0000001E
00000044
00000033
00000045
0000007F
00000057
00000035
00000063
0000003F
00000027
0000004E
00000036
00000042
0000007F
00000055
0000002B
00000050
00000033
FFFFFFFC
FFFFFFBE
FFFFFFB8
FFFFFFFA
FFFFFF92
FFFFFF81
00000006
FFFFFFE1
FFFFFFC9
0000000F
0000001A
00000051
FFFFFFC9
FFFFFFF7
0000007F
FFFFFFA5
FFFFFF9E
00000013
FFFFFFC1
FFFFFFAA
FFFFFFBC
FFFFFFA7
FFFFFF81
FFFFFF8E
FFFFFFBD
FFFFFF99
FFFFFFAB
FFFFFFD4
FFFFFFAE
FFFFFFCF
FFFFFFAE
FFFFFF81
FFFFFF98
FFFFFFD0
FFFFFFA1
FFFFFFBC
FFFFFFCE
FFFFFFB6
FFFFFFEB
FFFFFFBF
FFFFFF81
FFFFFFA6
FFFFFFE2
FFFFFFA4
FFFFFFB6
FFFFFFD5
FFFFFFBE
FFFFFFD1
FFFFFFA5
FFFFFF81
FFFFFF9B
FFFFFFCE
FFFFFFA6
FFFFFFAA
0000002A
00000042
00000027
0000003E
0000007F
00000063
00000031
00000060
0000004A
0000003C
0000004E
00000049
00000042
0000007F
0000007E
00000046
00000079
00000078
FFFFFFF0
FFFFFFC4
FFFFFFC6
FFFFFFCE
FFFFFF81
FFFFFF9C
FFFFFFCC
FFFFFFA0
FFFFFFB2
FFFFFFE4
FFFFFFC0
FFFFFFD2
FFFFFFC9
FFFFFF81
FFFFFFA1
FFFFFFD6
FFFFFFA2
FFFFFFB4
00000021
00000045
00000036
0000003E
0000007F
0000005B
0000002E
0000005B
0000003D
FFFFFFDA
FFFFFFB1
FFFFFFC6
FFFFFFC2
FFFFFF81
FFFFFF9D
FFFFFFD5
FFFFFFA2
FFFFFFBE
0000001F
00000036
00000022
0000004B
0000007F
0000004A
0000003F
0000005A
00000038
FFFFFFD7
FFFFFFB3
FFFFFFC8
FFFFFFB6
FFFFFF81
FFFFFFA1
FFFFFFCE
FFFFFFA3
FFFFFFBE
0000001E
0000003D
00000036
0000003E
0000007F
0000006C
0000002F
00000062
0000004D
00000031
0000000B
FFFFFFBF
00000066
00000015
FFFFFF81
0000004C
00000001
FFFFFF90
FFFFFFDD
FFFFFFC0
FFFFFFD9
FFFFFFBF
FFFFFF81
FFFFFFA8
FFFFFFCE
FFFFFFA8
FFFFFFBC
00000014
00000038
00000035
0000003D
0000007F
0000005E
00000039
00000069
00000047
FFFFFFE5
FFFFFFB0
FFFFFFD0
FFFFFFDF
FFFFFFBC
FFFFFFD3
0000004B
0000007F
0000004D
00000023
00000043
0000002E
00000038
0000007F
00000055
00000028
00000054
00000039
FFFFFFD6
FFFFFFB7
00000004
FFFFFFB4
FFFFFFEA
0000004A
FFFFFFF5
00000037
0000007F
0000000F
00000025
00000022
00000028
00000050
00000047
FFFFFFC8
FFFFFF81
FFFFFF9F
FFFFFFB7
FFFFFF94
FFFFFFB9
FFFFFF9D
FFFFFF91
FFFFFF93
FFFFFFB3
FFFFFF81
FFFFFF97
00000020
00000043
00000039
00000045
0000007F
00000063
00000030
00000053
0000003B
FFFFFFBA
FFFFFF97
FFFFFFBA
FFFFFF9B
FFFFFF81
FFFFFF9C
0000003F
00000053
0000003A
FFFFFFD9
FFFFFFC2
FFFFFFE1
FFFFFFC6
FFFFFF81
FFFFFFA7
FFFFFFEF
FFFFFFB6
FFFFFFBA
0000001D
00000040
0000002D
0000003D
0000007F
0000004F
00000028
0000004E
00000034
00000027
00000048
00000038
0000004A
0000007F
00000062
00000034
00000063
00000049
00000021
00000040
0000002D
00000042
0000007F
00000055
00000030
0000005B
00000042
FFFFFFD6
FFFFFFAB
FFFFFFC9
FFFFFFB7
FFFFFF81
FFFFFF9D
FFFFFFCC
FFFFFF9C
FFFFFFBA
0000001E
00000040
00000031
0000003F
0000007F
00000064
0000002E
00000059
00000045
FFFFFFD5
FFFFFFA3
FFFFFFC4
FFFFFFAB
FFFFFF81
FFFFFF96
FFFFFFCB
FFFFFF9B
FFFFFFB7
00000023
00000043
0000002C
00000038
0000007F
00000054
00000025
00000050
00000035
FFFFFFE6
FFFFFFCA
FFFFFFCF
FFFFFFCA
FFFFFF81
FFFFFF9E
FFFFFFD6
FFFFFFA8
FFFFFFAC
FFFFFFE6
FFFFFFC2
FFFFFFDB
FFFFFFC9
FFFFFF81
FFFFFFA5
FFFFFFDC
FFFFFFA0
FFFFFFB2
FFFFFFCD
FFFFFFB8
FFFFFFCF
FFFFFFA5
FFFFFF81
FFFFFFA0
FFFFFFC0
FFFFFF8B
FFFFFFB1
FFFFFFD1
FFFFFFA9
FFFFFFBF
FFFFFFB5
FFFFFF81
FFFFFF9F
FFFFFFC7
FFFFFF98
FFFFFFB1
00000024
00000043
0000002A
00000040
0000007F
0000005D
0000002C
0000005E
00000046
0000001D
0000003F
00000030
00000038
0000007F
00000064
00000028
00000060
0000004B
00000021
00000042
00000032
00000045
0000007F
00000064
00000036
00000067
00000050
0000002A
0000004A
00000027
0000004E
0000007F
0000004B
0000003A
00000061
00000039
00000030
00000053
00000041
00000049
0000007F
0000006A
0000003B
00000065
00000051
00000029
00000044
0000002A
00000049
0000007F
00000054
0000002E
00000059
00000041
FFFFFFC8
FFFFFFB6
FFFFFFE4
FFFFFFA2
FFFFFF81
FFFFFF9C
FFFFFFCE
FFFFFFA1
FFFFFF8B
0000002E
0000004C
0000003C
0000004D
0000007F
0000005C
0000003A
00000064
00000049
FFFFFFE1
FFFFFFCC
FFFFFFDA
FFFFFFC6
FFFFFF81
FFFFFFB2
FFFFFFDD
FFFFFFB1
FFFFFFD4
0000001F
00000040
00000030
0000003F
0000007F
0000005F
00000030
00000063
00000049
0000002A
0000004D
00000038
00000044
0000007F
0000005D
00000030
00000051
0000003F
0000003D
0000004F
0000001D
00000049
0000007F
00000059
0000001A
00000062
0000005E
FFFFFFE4
FFFFFFC7
FFFFFFD1
FFFFFFB7
FFFFFF81
FFFFFFA6
FFFFFFBC
FFFFFF95
FFFFFFC1
FFFFFFA1
FFFFFF81
FFFFFFD0
00000060
0000000C
FFFFFF91
0000003B
0000007B
00000050
0000001D
00000039
00000030
0000003D
0000007F
00000064
00000037
0000006F
00000056
FFFFFFD1
FFFFFFAD
FFFFFFC1
FFFFFFAB
FFFFFF81
FFFFFF98
FFFFFFB5
FFFFFF9D
FFFFFFB0
0000001B
00000037
0000002C
00000038
0000007F
00000064
0000002F
00000066
00000051
00000021
00000049
0000003E
00000045
0000007F
0000006C
0000003E
00000073
0000005A
00000031
FFFFFFCE
FFFFFFF3
0000007F
FFFFFFA1
FFFFFFF4
00000075
FFFFFFC3
FFFFFFF9
00000020
0000003C
00000034
0000003C
0000007F
00000061
00000032
0000005F
0000004D
00000022
00000030
FFFFFFA9
00000055
00000061
FFFFFF81
0000002A
00000043
FFFFFF99
FFFFFFD0
FFFFFFAE
FFFFFFCD
FFFFFFA4
FFFFFF81
FFFFFF96
FFFFFFBB
FFFFFFA3
FFFFFFB0
FFFFFFDA
FFFFFFB8
FFFFFFCE
FFFFFFB5
FFFFFF81
FFFFFFA2
FFFFFFCB
FFFFFFA5
FFFFFFBF
0000001F
0000003A
00000029
FFFFFFFD
FFFFFFF9
00000002
FFFFFFB3
FFFFFF81
FFFFFFAC
0000000E
0000003D
0000003F
0000003C
0000007F
00000060
0000003F
0000005C
0000002B
FFFFFFDD
FFFFFFBB
FFFFFFCA
FFFFFFCA
FFFFFF81
FFFFFFA7
FFFFFFD5
FFFFFFA7
FFFFFFC0
FFFFFFDA
FFFFFFA0
FFFFFFAE
FFFFFFBD
FFFFFF81
FFFFFF98
FFFFFFD0
FFFFFFAC
FFFFFFBD
0000002C
00000045
00000035
00000044
0000007F
00000060
0000003A
0000006A
0000004C
FFFFFFDA
FFFFFFA7
FFFFFFBC
FFFFFFC0
FFFFFF81
FFFFFFA4
FFFFFFC9
FFFFFFA8
FFFFFFCA
0000001F
00000042
0000001F
FFFFFFBA
FFFFFF81
FFFFFFB8
0000000A
00000031
00000024
FFFFFFB0
FFFFFFBF
00000013
FFFFFFBF
FFFFFF81
FFFFFFBD
0000001D
FFFFFFBA
FFFFFF97
FFFFFFB7
FFFFFFAB
00000013
FFFFFFA7
FFFFFFD8
00000067
00000010
00000074
0000007F
0000001A
0000003B
0000002E
0000003B
0000007F
0000005F
0000002A
0000005F
00000043
FFFFFFDD
FFFFFFC1
FFFFFFD0
FFFFFFC1
FFFFFF81
FFFFFFA2
FFFFFFCF
FFFFFFA1
FFFFFFC0
0000002C
0000004D
00000038
00000050
0000007F
00000060
0000003D
00000061
00000047
0000002B
0000004D
0000003D
00000045
0000007F
00000060
00000030
00000056
00000043
00000022
00000013
FFFFFFB9
00000045
0000002A
FFFFFF81
0000002D
00000018
FFFFFFA8
00000020
FFFFFFFA
FFFFFFBC
FFFFFFF3
FFFFFF9F
FFFFFF8B
FFFFFFA8
FFFFFF81
FFFFFFC4
0000001F
0000003F
0000002F
0000003F
0000007F
0000005C
00000031
00000061
0000004F
FFFFFFE1
FFFFFFC0
FFFFFFC3
FFFFFFD5
FFFFFF81
FFFFFF97
FFFFFFDC
FFFFFFA2
FFFFFFB3
0000001B
0000003B
00000029
00000041
0000007F
00000064
00000032
00000063
0000004F
0000001B
0000007F
00000077
0000004E
0000000F
FFFFFF98
FFFFFFAC
FFFFFF90
FFFFFFBB
0000001B
0000003E
00000034
0000003C
0000007F
0000005E
00000032
00000055
00000032
00000019
00000033
00000028
00000035
0000007F
00000059
00000026
0000005B
00000047
FFFFFFFC
FFFFFFF5
00000015
FFFFFF94
FFFFFF81
0000003F
FFFFFFA0
FFFFFF94
0000003A
FFFFFFD4
FFFFFFC0
FFFFFFDB
FFFFFFB7
FFFFFF81
FFFFFFAB
FFFFFFD2
FFFFFFAC
FFFFFFBC
00000023
00000044
0000002F
0000003F
0000007F
00000064
00000034
00000066
0000004F
FFFFFFD3
FFFFFFA6
FFFFFFB2
FFFFFFAC
FFFFFF81
FFFFFF97
FFFFFFB3
FFFFFF92
FFFFFFB6
0000000A
00000004
FFFFFFFE
FFFFFFC7
FFFFFFA7
FFFFFFC9
FFFFFFA5
FFFFFF81
FFFFFFB6
00000004
00000013
0000000D
FFFFFFE1
FFFFFF92
FFFFFFAB
FFFFFFC2
FFFFFF81
FFFFFF91
0000001C
0000003B
00000030
0000003E
0000007F
00000061
00000030
00000064
0000004A
FFFFFFA6
FFFFFFF3
00000049
FFFFFFEA
0000007F
0000003A
00000043
0000003F
FFFFFF98
FFFFFFE2
FFFFFFC4
0000003D
FFFFFFF5
FFFFFF8E
0000007F
FFFFFFFD
FFFFFFA8
00000055
00000024
00000043
0000002F
00000041
0000007F
0000005D
0000002F
00000057
00000041
0000001D
00000039
0000002E
00000048
0000007F
00000050
00000039
0000005B
00000037
FFFFFFBB
FFFFFFF0
00000038
FFFFFFAB
FFFFFFF7
0000007F
FFFFFFB7
FFFFFFE8
00000072
FFFFFFDE
FFFFFFB9
FFFFFFCB
FFFFFFB8
FFFFFF81
FFFFFF9E
FFFFFFCF
FFFFFFAC
FFFFFFBF
FFFFFFE2
FFFFFFBD
FFFFFFC3
FFFFFFB8
FFFFFF81
FFFFFF9D
FFFFFFCA
FFFFFFAC
FFFFFFBB
FFFFFFF5
FFFFFFC5
FFFFFFBA
FFFFFFB8
FFFFFF81
FFFFFFA5
FFFFFFA7
FFFFFF9D
FFFFFFE0
00000025
00000047
00000034
0000003E
0000007F
00000066
0000002E
0000005F
0000004C
00000030
0000004F
00000041
0000004D
0000007F
0000006A
0000003D
0000006A
00000057
00000030
00000048
00000037
00000042
0000007F
0000005A
00000030
00000055
00000042
FFFFFFDE
FFFFFFBA
FFFFFFCA
FFFFFFBE
FFFFFF81
FFFFFF9F
FFFFFFD0
FFFFFFA3
FFFFFFBA
0000002A
0000004A
0000003F
0000003D
0000007F
00000065
00000028
0000004F
00000046
00000020
00000043
0000003D
0000003D
0000007F
00000068
0000002D
00000060
00000044
FFFFFFD9
FFFFFFB6
FFFFFFD1
FFFFFFB6
FFFFFF81
FFFFFFA8
FFFFFFD3
FFFFFFA8
FFFFFFCA
FFFFFFD3
FFFFFFA8
FFFFFFB1
FFFFFFB4
FFFFFF81
FFFFFF9F
FFFFFFC0
FFFFFF9B
FFFFFFC9
00000020
00000049
0000003A
00000039
0000007F
0000005C
0000002F
00000056
0000003C
0000001D
00000040
00000033
0000003E
0000007F
0000005A
0000002A
00000059
0000003D
0000000A
0000004D
00000048
00000046
0000007F
0000006B
00000044
00000062
0000003A
FFFFFFE9
FFFFFFCD
FFFFFFD0
FFFFFFD4
FFFFFF81
FFFFFF9C
FFFFFFDA
FFFFFFA1
FFFFFFAE
00000033
00000050
00000026
0000005A
0000007F
0000002E
0000002B
0000003B
00000011
FFFFFFD4
FFFFFFB1
FFFFFFD5
FFFFFFA8
FFFFFF81
FFFFFFA7
FFFFFFC9
FFFFFF9A
FFFFFFAB
00000031
00000050
00000035
00000044
0000007F
00000068
00000032
00000061
00000056
FFFFFFC1
FFFFFFB6
FFFFFFE7
FFFFFF81
FFFFFF84
FFFFFFD8
FFFFFFBA
FFFFFFBC
FFFFFFDE
00000020
0000003F
0000002B
0000003B
0000007F
0000005F
00000026
0000005E
00000049
FFFFFFDD
FFFFFFBB
FFFFFFCB
FFFFFFC2
FFFFFF81
FFFFFF9E
FFFFFFD3
FFFFFFA3
FFFFFFBA
FFFFFFEC
FFFFFFD3
FFFFFFE6
FFFFFFFA
00000014
0000000F
0000003B
0000007F
00000056
0000001B
00000051
0000004B
00000041
0000007F
00000063
00000029
0000004D
0000002E
FFFFFFDD
FFFFFFB7
FFFFFFD0
FFFFFFB8
FFFFFF81
FFFFFF9E
FFFFFFD7
FFFFFFA0
FFFFFFBD
0000001A
0000003D
00000031
0000003A
0000007F
0000005E
00000027
0000005E
00000042
0000002A
00000021
FFFFFFE7
00000064
00000073
00000024
00000056
0000007F
0000004A
00000019
00000041
0000003C
0000003E
0000007F
0000005B
0000003A
00000068
0000003F
00000037
0000004B
00000029
00000052
0000007F
0000005D
00000038
00000063
00000053
00000029
00000047
00000030
00000044
0000007F
00000057
0000002F
00000064
00000048
FFFFFFB1
FFFFFF98
FFFFFFCB
FFFFFFA8
FFFFFF81
FFFFFFB2
FFFFFFD4
FFFFFF93
FFFFFFB1
00000028
00000045
0000003D
00000049
0000007F
00000060
00000040
00000064
00000046
00000026
00000049
00000035
00000041
0000007F
00000059
00000031
0000005A
0000003C
00000024
0000003F
00000031
0000003B
0000007F
00000066
00000030
0000006B
00000051
FFFFFFED
00000034
FFFFFFCB
FFFFFFD0
0000007F
FFFFFFAE
FFFFFFDE
00000065
FFFFFFCB
FFFFFFD6
FFFFFFB2
FFFFFFBF
FFFFFFB8
FFFFFF81
FFFFFF9B
FFFFFFD1
FFFFFF9F
FFFFFFB9
0000001F
0000003D
0000002D
00000039
0000007F
0000005C
00000029
00000059
00000048
0000002D
0000004F
00000039
0000004D
0000007F
00000067
0000003D
00000066
0000004C
FFFFFFDF
FFFFFFB9
FFFFFFCD
FFFFFFC7
FFFFFF81
FFFFFF9F
FFFFFFD7
FFFFFFA1
FFFFFFB6
FFFFFFE1
FFFFFFBF
FFFFFFBF
FFFFFFC1
FFFFFF81
FFFFFF97
FFFFFFCB
FFFFFF98
FFFFFFA9
FFFFFFE3
FFFFFFB4
FFFFFFC1
FFFFFFC0
FFFFFF81
FFFFFF95
FFFFFFCA
FFFFFF8B
FFFFFF97
00000028
00000041
0000002F
00000046
0000007F
0000005B
00000033
0000005E
00000044
00000024
00000044
0000002A
00000046
0000007F
00000051
0000002C
00000058
0000003A
00000025
00000047
0000003B
0000004A
0000007F
00000058
00000040
0000005E
00000030
FFFFFFD6
FFFFFFB2
FFFFFFC7
FFFFFFB6
FFFFFF81
FFFFFFA1
FFFFFFD1
FFFFFFA5
FFFFFFBF
00000017
FFFFFFE5
FFFFFFF9
0000007F
FFFFFFCB
FFFFFFAF
00000022
FFFFFFE3
FFFFFFF9
00000018
00000037
00000019
0000000B
FFFFFF81
00000010
FFFFFFF9
FFFFFFDD
00000001
FFFFFFEC
FFFFFFF0
00000005
FFFFFFF8
0000007F
0000000B
0000000D
00000006
FFFFFFE4
00000001
FFFFFFF2
00000009
FFFFFFD7
FFFFFFA9
0000007F
FFFFFFFC
FFFFFFEC
00000004
0000000E
FFFFFFE4
FFFFFFF2
0000007F
FFFFFF9F
FFFFFFF7
00000026
FFFFFFDE
FFFFFFFC
FFFFFFF2
FFFFFFF9
FFFFFFF2
FFFFFFFE
0000007F
FFFFFFF9
FFFFFFF9
FFFFFFF8
FFFFFFFB
FFFFFFF4
FFFFFFD2
00000003
FFFFFFF9
0000007F
FFFFFFE1
00000007
00000007
0000000A
0000003F
0000007F
00000041
FFFFFFEA
FFFFFFE5
FFFFFFED
FFFFFFD5
FFFFFFA9
FFFFFFC6
00000018
0000004E
00000016
FFFFFFB4
FFFFFF81
FFFFFFA9
0000001D
00000032
00000016
0000007D
FFFFFFCA
FFFFFFC7
0000007F
FFFFFF8D
FFFFFFF9
0000006B
FFFFFFC7
FFFFFFD5
FFFFFFE9
FFFFFF95
FFFFFFD9
0000000A
00000012
00000005
0000002E
0000007F
0000000E
00000002
FFFFFFBC
FFFFFFEF
0000007F
FFFFFFB5
FFFFFFC2
00000056
00000017
FFFFFFE5
00000004
FFFFFFFE
00000007
0000000A
0000007F
FFFFFFF5
FFFFFFFE
00000004
FFFFFFFC
00000007
00000017
FFFFFFFA
FFFFFFFC
0000007F
0000001E
0000000F
00000027
00000000
0000007F
00000023
0000001A
0000003B
FFFFFF83
FFFFFFB7
00000019
FFFFFFC1
FFFFFFF8
FFFFFF9D
FFFFFFC8
FFFFFF90
FFFFFFB5
FFFFFFAB
FFFFFF8B
FFFFFFA6
FFFFFF81
FFFFFF83
00000033
FFFFFFE9
FFFFFFD4
00000068
00000025
FFFFFF81
00000039
FFFFFFDF
FFFFFFE6
FFFFFFF3
FFFFFFF1
FFFFFFF4
FFFFFFF3
FFFFFF81
FFFFFFE5
00000007
FFFFFFE2
00000004
FFFFFFB6
00000027
0000001F
00000002
FFFFFF81
0000001C
00000019
0000001D
FFFFFFAC
00000001
FFFFFFF8
FFFFFFF8
FFFFFFD9
FFFFFF83
FFFFFFD7
00000016
0000007F
0000001F
00000000
FFFFFFDD
FFFFFFFC
FFFFFFFA
0000007F
FFFFFFF2
FFFFFFEC
FFFFFFDE
FFFFFFE0
00000011
0000007F
00000006
FFFFFFEC
FFFFFFAE
FFFFFFEE
00000002
FFFFFFCF
0000000A
00000033
0000007F
00000037
FFFFFFF2
FFFFFFE7
FFFFFFE3
FFFFFFCE
FFFFFFBA
FFFFFFD0
FFFFFFD7
FFFFFF81
FFFFFFE3
FFFFFFE2
0000001F
FFFFFFDD
00000033
0000007C
00000030
FFFFFFEE
FFFFFFFA
0000000D
FFFFFFF1
FFFFFFB9
0000007F
FFFFFFEA
FFFFFFEA
00000015
00000017
0000001E
00000019
FFFFFFFD
FFFFFF81
FFFFFFF6
FFFFFFF9
0000000A
FFFFFFFD
FFFFFFE3
FFFFFFF1
0000002B
FFFFFFA8
FFFFFFDB
0000007F
FFFFFFED
FFFFFFF5
0000001B
FFFFFFF7
FFFFFFFB
FFFFFFFE
FFFFFFFE
0000007F
FFFFFFF9
FFFFFFF5
FFFFFFF9
FFFFFFF8
0000001A
00000055
00000029
FFFFFFFA
0000003E
00000007
FFFFFFD9
FFFFFF81
FFFFFFD2
00000022
0000000B
FFFFFFED
00000016
FFFFFF81
00000008
FFFFFFF5
FFFFFFFF
0000001D
FFFFFFDD
FFFFFFFF
FFFFFFCD
FFFFFFF7
0000007F
FFFFFFF1
FFFFFFDB
FFFFFFF3
FFFFFFDB
00000001
FFFFFFE6
00000005
FFFFFFE8
FFFFFF92
0000007F
FFFFFFF3
FFFFFFEB
00000026
0000000A
00000006
FFFFFFFE
00000017
0000007F
00000001
FFFFFFF7
0000000E
00000021
FFFFFFF9
FFFFFFFC
FFFFFFF8
00000005
0000007F
00000005
FFFFFFFC
0000000A
FFFFFFFA
00000005
00000012
00000007
0000000A
FFFFFF81
0000000A
0000000B
00000007
00000008
FFFFFFFD
00000011
FFFFFFFA
00000011
0000007F
00000019
00000001
00000017
FFFFFFFF
00000004
00000007
00000008
00000000
0000007F
00000000
FFFFFFF9
0000000A
00000000
FFFFFFF2
00000023
0000000B
FFFFFFED
FFFFFF81
FFFFFFCB
0000000D
0000003D
00000017
FFFFFFF9
FFFFFFEF
FFFFFFFB
FFFFFFF8
FFFFFFBB
FFFFFFF0
FFFFFFFB
0000007F
00000005
FFFFFFED
00000008
00000021
FFFFFF81
0000000F
0000006D
FFFFFFD7
FFFFFFEE
0000001B
FFFFFFE8
0000007F
0000000D
FFFFFFEA
00000020
FFFFFFFA
FFFFFFEE
FFFFFFC1
FFFFFFF0
FFFFFFFB
FFFFFFFC
00000001
FFFFFFFA
0000007F
FFFFFFF5
FFFFFFFC
0000000C
00000000
FFFFFFED
FFFFFFE7
FFFFFFE6
FFFFFFD6
0000007F
FFFFFFDF
FFFFFFEC
FFFFFFDB
FFFFFFEA
0000006D
FFFFFFE8
0000000D
0000005B
FFFFFF81
FFFFFFD7
0000002C
FFFFFFBD
FFFFFFFE
FFFFFFF6
00000001
0000002E
FFFFFFFC
0000007F
FFFFFFBE
00000027
FFFFFFBF
FFFFFFEE
FFFFFFFB
FFFFFFD6
00000002
0000003F
FFFFFFBF
FFFFFFDE
0000007F
FFFFFFEC
FFFFFFFC
FFFFFFE6
FFFFFFEE
0000002C
00000053
00000032
FFFFFF81
FFFFFFF3
FFFFFFF8
00000019
00000018
FFFFFFEE
FFFFFFFC
0000007F
FFFFFFD7
FFFFFF9D
00000016
FFFFFFE7
FFFFFFF9
FFFFFFF5
FFFFFFF6
FFFFFFF5
FFFFFFF8
0000007F
FFFFFFF9
FFFFFFF3
FFFFFFF7
FFFFFFF1
00000002
FFFFFF8C
00000006
FFFFFFFD
FFFFFFFE
FFFFFFFA
00000004
0000007F
FFFFFFFC
FFFFFFF3
FFFFFFE8
FFFFFFF2
FFFFFFFB
0000007F
FFFFFFF5
FFFFFFF5
FFFFFFBB
FFFFFFF7
0000001B
FFFFFFF4
FFFFFFED
0000007F
FFFFFFE9
FFFFFF99
00000015
FFFFFFF3
FFFFFFEB
FFFFFFF9
FFFFFFCD
FFFFFFFF
00000004
0000007F
FFFFFFFF
00000005
FFFFFFD1
00000002
FFFFFFFC
0000007F
00000004
FFFFFFF6
FFFFFFAB
FFFFFFF3
00000001
FFFFFFF3
00000002
FFFFFFE7
FFFFFF8C
FFFFFFE2
FFFFFFFF
FFFFFFFA
FFFFFFF7
00000019
0000007F
0000001C
00000000
FFFFFFF7
FFFFFFFE
FFFFFFFE
FFFFFF81
FFFFFFF5
FFFFFFFE
FFFFFFFC
FFFFFFFF
00000004
FFFFFFF7
00000003
00000007
0000007F
00000006
FFFFFFFD
0000001F
FFFFFFFA
00000007
FFFFFFFC
FFFFFFE2
FFFFFFFF
FFFFFFD6
0000007F
00000005
FFFFFFEE
FFFFFFE7
FFFFFFEE
00000011
00000028
FFFFFF88
FFFFFFF2
0000007F
FFFFFFBE
FFFFFFD9
00000018
FFFFFFA9
FFFFFF94
00000000
FFFFFF81
0000003A
00000056
FFFFFFEB
00000051
00000030
FFFFFFFA
00000001
00000005
FFFFFFE9
FFFFFF90
0000007F
00000005
FFFFFFF0
0000000D
FFFFFFFF
FFFFFFDF
FFFFFFF7
FFFFFFFC
0000007F
00000008
FFFFFFFA
FFFFFFD6
FFFFFFF7
FFFFFF9F
FFFFFFD2
FFFFFF81
FFFFFFD6
00000028
FFFFFFE6
FFFFFFB1
FFFFFFDA
FFFFFF94
00000007
00000029
00000008
00000009
0000007F
FFFFFFF3
0000000A
0000001B
0000000A
FFFFFFEE
0000001E
FFFFFFEB
0000007C
FFFFFFE7
0000007F
0000002A
FFFFFFE1
0000001D
FFFFFFF0
FFFFFFDE
FFFFFFE1
FFFFFFD2
FFFFFFA8
FFFFFFE8
0000002F
0000007F
0000002A
FFFFFFFA
FFFFFFED
00000008
FFFFFFEA
FFFFFF81
00000047
00000022
00000032
00000002
00000005
FFFFFFDE
FFFFFFF1
FFFFFFEA
0000007F
0000002D
00000001
FFFFFFE4
FFFFFFF2
FFFFFFF9
00000013
FFFFFFFA
00000023
0000007F
00000016
FFFFFFF8
00000021
0000000D
0000000F
FFFFFFF6
FFFFFFFA
0000007F
FFFFFFC7
FFFFFFB6
00000002
FFFFFFF0
FFFFFFF9
00000022
0000007F
00000023
FFFFFFF7
FFFFFFC9
FFFFFFED
FFFFFFF4
FFFFFFB5
FFFFFFEE
FFFFFFEA
FFFFFFF8
0000001B
FFFFFF81
FFFFFFF2
0000007E
FFFFFFEA
FFFFFFF4
00000022
FFFFFFF7
FFFFFFFA
FFFFFFF8
FFFFFFFA
0000007F
00000000
FFFFFFFB
0000000C
FFFFFFFB
FFFFFFE9
0000002F
00000025
FFFFFFBB
0000007F
FFFFFFED
00000026
00000022
00000005
FFFFFFF0
FFFFFFDE
FFFFFFF0
FFFFFFE0
0000007F
FFFFFFDE
FFFFFFEA
FFFFFFE2
FFFFFFEE
0000002E
00000012
00000020
0000000C
FFFFFF81
00000013
0000001D
00000002
00000018
FFFFFFF2
FFFFFFC7
00000000
FFFFFFFF
FFFFFFC7
0000007F
FFFFFFEA
00000005
00000006
FFFFFFFE
FFFFFFBF
FFFFFFFC
FFFFFFE9
FFFFFFDA
FFFFFFE9
00000008
0000007F
0000000F
FFFFFFFE
FFFFFFC2
00000000
FFFFFF90
FFFFFF8E
FFFFFF81
FFFFFFFB
FFFFFFCD
FFFFFFFB
FFFFFFB0
FFFFFF9A
FFFFFFFE
0000007F
FFFFFFAB
FFFFFF88
0000007A
0000005D
FFFFFFC5
00000011
0000007F
0000000C
FFFFFFEC
FFFFFFD4
FFFFFFEB
00000002
FFFFFFB2
00000004
FFFFFFF3
FFFFFFEB
FFFFFFF6
FFFFFFF7
0000007F
FFFFFFEB
FFFFFFF6
FFFFFFD0
FFFFFFEA
FFFFFFF7
00000001
00000014
FFFFFFFC
FFFFFF81
FFFFFFF4
00000006
00000001
00000001
00000001
FFFFFFF3
FFFFFFFB
FFFFFFF5
0000003D
0000007F
FFFFFFE9
FFFFFF98
FFFFFFE1
FFFFFFFD
FFFFFFE5
FFFFFFDB
FFFFFFFA
0000007F
FFFFFFFC
FFFFFFF1
FFFFFFDA
00000004
00000004
FFFFFFCD
FFFFFFFD
FFFFFFB6
FFFFFF81
FFFFFFA0
0000000D
FFFFFF99
FFFFFFF3
00000007
FFFFFFB4
0000001A
0000000C
FFFFFF81
00000036
0000000D
FFFFFFB9
00000018
FFFFFFF5
00000003
00000011
FFFFFFF7
0000007F
FFFFFFDF
00000011
0000001C
FFFFFFFB
FFFFFFF7
FFFFFFEB
FFFFFFF9
FFFFFFF4
0000007F
FFFFFFF7
FFFFFFF7
00000003
FFFFFFF9
FFFFFFA0
0000000D
FFFFFF8E
FFFFFFD7
FFFFFF89
FFFFFFBF
FFFFFF8E
FFFFFFAE
FFFFFF81
FFFFFFBA
FFFFFFAD
FFFFFFBB
FFFFFFA8
00000019
FFFFFF91
FFFFFFA6
FFFFFF81
FFFFFFA3
FFFFFFE2
FFFFFFF6
0000001B
FFFFFF89
FFFFFFFA
0000007F
FFFFFFD9
FFFFFFF1
00000021
FFFFFFFB
FFFFFFA5
FFFFFFE4
FFFFFFF7
FFFFFFCF
FFFFFFCC
00000030
0000007F
0000002F
FFFFFFB8
FFFFFFA4
0000001A
FFFFFFFD
FFFFFF81
00000048
0000002B
0000002F
00000069
00000004
0000000C
00000004
00000006
0000007F
00000019
FFFFFFFE
00000017
00000000
FFFFFFFD
FFFFFFEF
FFFFFFFE
FFFFFFF0
0000007F
FFFFFFE2
FFFFFFFA
FFFFFFE6
FFFFFFFE
FFFFFFD3
FFFFFFC5
FFFFFFE5
FFFFFFC6
FFFFFFB0
0000005F
FFFFFFE2
0000000F
0000007F
00000016
00000015
00000008
00000009
0000007F
FFFFFFB0
00000002
0000002F
FFFFFFF8
FFFFFFF7
0000000E
FFFFFFF5
FFFFFFF9
0000000B
FFFFFFFA
FFFFFFFB
0000007F
0000001D
FFFFFFF2
FFFFFFF9
FFFFFFF9
FFFFFFEE
FFFFFFD8
FFFFFFFE
0000007F
FFFFFFDE
FFFFFFF4
00000007
FFFFFFF1
FFFFFFEA
FFFFFFF9
FFFFFFC9
FFFFFFDF
00000034
0000007F
FFFFFFFE
FFFFFFF4
FFFFFFB2
FFFFFFF3
FFFFFFF1
0000007F
FFFFFFFD
FFFFFFFE
FFFFFFE7
FFFFFFF8
FFFFFFEE
0000000A
FFFFFFED
00000013
0000007F
0000001D
FFFFFFF0
00000017
FFFFFFE6
FFFFFFC5
FFFFFF92
FFFFFFE9
FFFFFFBF
FFFFFFDD
00000008
00000026
0000007F
00000047
FFFFFFF1
0000002A
FFFFFFF5
0000000C
0000007F
0000000D
00000002
00000025
FFFFFFFE
00000008
00000003
00000008
00000003
FFFFFF81
0000000F
00000008
00000021
00000001
0000005B
00000042
FFFFFFE4
00000061
FFFFFFDE
FFFFFF81
FFFFFFF4
FFFFFFAE
FFFFFFDE
FFFFFFC5
FFFFFFC4
FFFFFFCE
FFFFFF8B
FFFFFF96
FFFFFF81
FFFFFFC2
FFFFFFCE
FFFFFFB6
00000004
FFFFFFDA
FFFFFFF4
00000001
0000007F
FFFFFFCE
FFFFFFED
FFFFFFF8
00000013
FFFFFFF6
FFFFFFF8
00000006
00000004
0000007F
0000000E
00000008
00000000
FFFFFFE3
FFFFFFFC
FFFFFFDD
FFFFFFFB
FFFFFFF6
FFFFFFB4
FFFFFFEB
0000000D
0000007F
00000001
00000003
00000068
0000001B
FFFFFFED
FFFFFF81
FFFFFFC4
FFFFFFF4
00000003
00000000
FFFFFFFD
FFFFFFED
FFFFFFFC
FFFFFFF4
0000007F
FFFFFFF2
FFFFFFF8
FFFFFFF5
FFFFFFFE
00000026
FFFFFFF2
FFFFFFE5
0000007F
FFFFFFFB
FFFFFF9D
00000060
FFFFFFDD
FFFFFFA6
0000000E
00000049
00000055
FFFFFFCA
FFFFFF81
00000044
FFFFFFE8
FFFFFFC7
0000001B
0000001C
0000007F
00000052
FFFFFFCD
FFFFFFBC
FFFFFFD4
FFFFFFEE
FFFFFFF1
FFFFFFE2
00000007
FFFFFFF1
FFFFFFF9
FFFFFFE9
0000007F
FFFFFFF2
00000000
FFFFFFF9
00000005
00000006
FFFFFFF6
FFFFFFF6
FFFFFFE1
FFFFFFA4
FFFFFFFC
00000007
0000007F
FFFFFFFA
FFFFFFB5
FFFFFFFB
0000005C
FFFFFF90
FFFFFFA1
0000007F
FFFFFFC0
FFFFFFBB
FFFFFF88
00000005
FFFFFFDE
00000012
FFFFFFD9
0000004D
00000073
00000017
00000046
FFFFFF81
FFFFFFF8
FFFFFFFF
FFFFFFF3
00000017
0000007F
00000000
FFFFFFEF
FFFFFFEF
FFFFFFEE
FFFFFFF6
FFFFFFC2
0000000F
00000012
0000004F
00000029
FFFFFFDA
0000007F
FFFFFFBF
FFFFFFF4
FFFFFF9B
FFFFFFF2
FFFFFFEA
FFFFFFF4
FFFFFFE9
0000001F
0000007F
0000001E
00000022
FFFFFFEB
FFFFFFE3
0000007F
00000003
FFFFFFA3
0000001B
FFFFFFEC
FFFFFFEA
00000006
0000005C
00000062
FFFFFF81
FFFFFFFF
00000064
FFFFFFBC
FFFFFF8B
00000000
0000001A
0000007F
00000018
FFFFFFF5
00000005
FFFFFFED
FFFFFFE9
FFFFFF90
FFFFFFEE
00000003
00000010
FFFFFFF6
0000000F
0000007F
00000019
FFFFFFF4
00000010
00000009
FFFFFFFE
FFFFFFF3
00000004
FFFFFFF6
FFFFFF81
FFFFFFEB
00000005
FFFFFFF2
0000000B
FFFFFFF6
FFFFFFEE
FFFFFFF3
FFFFFFF3
0000007F
FFFFFFF7
FFFFFFF8
FFFFFFF9
FFFFFFF3
FFFFFFFA
FFFFFFEB
00000008
FFFFFFCC
FFFFFFC4
0000007F
FFFFFFF5
FFFFFFE2
00000021
00000027
FFFFFFFE
FFFFFFE6
0000007F
FFFFFFCD
FFFFFFA4
00000025
00000000
FFFFFFE2
00000001
00000008
FFFFFFFE
FFFFFFFE
0000007F
FFFFFFFD
FFFFFFF9
FFFFFFFB
FFFFFFF9
00000003
00000002
00000010
0000002B
00000024
00000023
00000014
0000007F
00000022
FFFFFFF6
00000012
FFFFFFE8
00000017
0000007F
00000027
FFFFFFE4
00000035
00000008
FFFFFFF8
FFFFFFF1
FFFFFFF8
FFFFFFED
FFFFFFBF
FFFFFFF5
00000006
0000007F
00000004
FFFFFFD9
FFFFFF91
FFFFFFD1
00000008
00000025
FFFFFFBE
00000036
0000007F
FFFFFFFC
00000010
00000033
00000016
FFFFFFEF
0000007F
00000037
0000000B
00000026
00000011
0000007F
00000034
00000015
00000079
FFFFFF8B
FFFFFF97
00000017
FFFFFF9B
FFFFFFDD
0000007C
0000002E
00000003
00000043
FFFFFF81
FFFFFFC6
00000006
FFFFFFC6
FFFFFFF0
FFFFFFEF
FFFFFFD9
FFFFFFE7
00000001
0000007F
FFFFFFDC
FFFFFFFB
0000000E
FFFFFFF6
FFFFFFFD
FFFFFFF2
FFFFFFFF
FFFFFFF7
0000007F
FFFFFFF7
00000000
FFFFFFF8
FFFFFFFE
FFFFFFF9
FFFFFFC5
FFFFFFFC
FFFFFFE5
0000007F
FFFFFFE0
FFFFFFEA
0000000B
FFFFFFF2
00000010
FFFFFFEF
00000002
0000007F
0000002E
FFFFFF83
00000009
FFFFFFE4
FFFFFFDE
00000003
FFFFFFFC
00000008
FFFFFFD6
FFFFFF92
0000007F
00000003
00000002
0000000B
FFFFFFF2
FFFFFFB9
FFFFFFF2
FFFFFFE8
FFFFFFCE
FFFFFFDF
0000001F
0000007F
00000024
00000008
FFFFFFFD
FFFFFFFB
FFFFFFF9
0000007F
FFFFFF84
00000004
00000002
FFFFFFFC
0000007C
00000066
FFFFFFFF
00000055
FFFFFFA0
FFFFFF81
00000003
FFFFFF9A
FFFFFFAA
FFFFFFFD
00000004
FFFFFFFE
00000005
0000007F
00000009
FFFFFFF8
00000006
FFFFFFF9
FFFFFF95
FFFFFFC6
FFFFFF94
FFFFFFB1
FFFFFFC4
FFFFFFA2
FFFFFF9D
FFFFFFAA
FFFFFF81
FFFFFFFF
FFFFFFC2
00000002
FFFFFFF7
FFFFFFBD
FFFFFFE1
00000018
0000007F
0000000E
0000001E
00000029
0000001B
00000027
0000007F
00000024
00000013
00000032
00000013
FFFFFFE1
00000011
00000016
FFFFFF81
00000074
0000001A
FFFFFFD6
00000000
0000000F
FFFFFFF7
00000007
FFFFFFF3
FFFFFFFB
FFFFFFD6
FFFFFFF0
00000010
0000007F
00000019
FFFFFFFF
00000009
FFFFFFD9
00000004
0000007F
FFFFFFFD
FFFFFFEC
FFFFFFED
00000002
00000003
0000000F
00000004
FFFFFFF5
FFFFFF81
00000018
FFFFFFFA
0000000E
FFFFFFFE
FFFFFFED
0000001C
FFFFFFF1
FFFFFFF0
FFFFFF81
FFFFFFEC
FFFFFFF3
FFFFFFD5
FFFFFFF9
FFFFFFFD
0000001C
FFFFFFEC
00000005
0000007F
00000003
FFFFFFFB
FFFFFFF2
0000000C
FFFFFFFB
FFFFFFF2
FFFFFFFA
FFFFFFF7
0000007F
FFFFFFF7
FFFFFFF5
FFFFFFF9
FFFFFFF7
00000015
0000007F
0000001B
FFFFFFE3
FFFFFFB4
FFFFFFD3
FFFFFFF2
FFFFFFE8
FFFFFFF8
00000003
FFFFFFCB
FFFFFFB7
FFFFFFA0
FFFFFFCA
FFFFFF81
FFFFFF9F
FFFFFFAE
FFFFFFFF
FFFFFFF7
FFFFFFCB
FFFFFFF6
FFFFFFE7
0000007F
FFFFFFF2
FFFFFFFA
00000005
FFFFFFFA
FFFFFFE9
FFFFFFAD
FFFFFFE5
FFFFFFFB
FFFFFFD4
FFFFFFF6
00000017
0000007F
00000019
0000000C
0000000C
00000011
FFFFFFA2
FFFFFF86
FFFFFF81
00000017
00000030
0000001F
FFFFFFF9
FFFFFFF4
FFFFFFF4
FFFFFFF9
0000007F
FFFFFFDE
FFFFFFF5
FFFFFFD8
FFFFFFF9
00000016
FFFFFFEF
FFFFFFF9
0000007F
FFFFFFE1
FFFFFFA4
00000010
FFFFFFE2
00000009
FFFFFFD4
FFFFFFC7
0000000B
FFFFFFA9
FFFFFFC2
0000007F
FFFFFFEB
0000000D
00000054
FFFFFFE4
FFFFFFA0
00000017
FFFFFF9C
FFFFFF8C
0000007F
00000020
00000044
0000005A
FFFFFF81
FFFFFF94
FFFFFF9A
FFFFFFCE
00000036
FFFFFF83
FFFFFF93
FFFFFFA6
FFFFFF9C
00000039
00000015
FFFFFFEE
0000007F
FFFFFFD3
FFFFFF96
00000011
FFFFFFC2
FFFFFFC8
0000000A
0000000D
00000044
FFFFFFC3
FFFFFF9E
0000007F
FFFFFFFD
FFFFFFB7
0000000D
FFFFFFFF
FFFFFFC7
0000000F
FFFFFFE7
FFFFFF81
0000004F
FFFFFFF6
00000016
0000001F
0000000A
00000012
00000021
FFFFFFE6
0000007F
FFFFFFC7
0000001C
0000000E
FFFFFFEA
FFFFFFF8
FFFFFFF5
FFFFFFE4
00000002
0000007F
FFFFFFF5
FFFFFFE7
FFFFFFFA
FFFFFFF8
00000035
00000006
00000006
0000007F
00000069
FFFFFFD0
FFFFFFE7
FFFFFF8C
FFFFFF8B
00000019
FFFFFFAB
FFFFFFAF
0000007F
FFFFFFE0
FFFFFF86
00000041
0000000E
FFFFFFE7
0000000C
FFFFFFD0
FFFFFFF2
0000007F
FFFFFF82
FFFFFFF9
FFFFFFE4
0000003A
FFFFFFEE
0000001F
FFFFFF81
FFFFFFDC
0000006F
FFFFFFDE
FFFFFFA4
00000048
0000003E
0000001C
FFFFFFB0
FFFFFF81
FFFFFF99
FFFFFFD5
FFFFFFB5
FFFFFFA4
FFFFFFB4
FFFFFFA5
FFFFFFA1
FFFFFFFD
00000007
00000011
FFFFFFCE
FFFFFFB7
0000007F
00000000
FFFFFFE9
00000005
00000029
0000007F
00000022
FFFFFFF4
FFFFFFFA
FFFFFFE7
FFFFFFF0
FFFFFF92
FFFFFFE4
00000035
0000007F
0000002C
00000014
FFFFFFD7
FFFFFFE1
FFFFFFF7
FFFFFF89
FFFFFFCC
FFFFFFB8
FFFFFFE7
FFFFFFC2
FFFFFFBB
FFFFFFB3
FFFFFFB6
FFFFFF90
FFFFFF95
FFFFFF81
00000001
0000007F
00000020
FFFFFFDE
FFFFFFBD
FFFFFFDA
FFFFFFFA
FFFFFFEC
FFFFFFF7
FFFFFFFB
FFFFFFE6
FFFFFFF6
0000000F
0000007F
0000000B
FFFFFFF8
FFFFFFD6
FFFFFFFA
FFFFFFEF
00000024
FFFFFFE4
0000000D
0000007F
FFFFFFA4
FFFFFFFE
FFFFFFC9
0000000B
00000033
0000007F
00000039
FFFFFFBD
FFFFFF90
FFFFFFC0
FFFFFFF1
00000012
FFFFFFFB
00000008
00000035
FFFFFFED
FFFFFFF4
0000007F
0000003E
FFFFFFD3
FFFFFFCE
FFFFFFFB
0000003B
FFFFFFEA
FFFFFFEA
0000007F
FFFFFF97
FFFFFFC5
0000004B
FFFFFFE6
FFFFFFD4
FFFFFFF8
FFFFFFFF
FFFFFFFC
FFFFFFD8
0000007F
FFFFFFE4
FFFFFFF2
00000003
00000005
FFFFFFEF
FFFFFFC8
00000014
FFFFFFC0
FFFFFF81
00000031
00000027
0000002B
00000072
00000066
00000077
00000009
00000032
FFFFFFBC
FFFFFF96
00000003
FFFFFF81
FFFFFFE2
FFFFFFF8
FFFFFFE6
FFFFFFED
FFFFFFFA
0000007F
FFFFFFBA
FFFFFFF1
FFFFFFF2
00000005
00000023
0000007F
0000003A
FFFFFFD1
FFFFFFD9
FFFFFFE7
FFFFFFE5
FFFFFFB3
FFFFFFE2
FFFFFFE7
FFFFFFDF
FFFFFFFF
FFFFFFD9
FFFFFFCC
FFFFFFFD
00000009
0000000B
0000007F
FFFFFFFB
FFFFFFFD
FFFFFFFD
00000006
0000007F
00000001
FFFFFFF6
00000009
FFFFFFF7
FFFFFFFC
0000000B
FFFFFFF4
FFFFFFDD
0000007F
FFFFFFCD
FFFFFFFA
00000001
FFFFFFFB
00000003
FFFFFFEB
00000001
FFFFFFF7
0000007F
FFFFFFFA
FFFFFFFC
FFFFFFDE
FFFFFFFD
00000001
FFFFFFF8
FFFFFFEA
FFFFFFF3
0000007F
FFFFFFFB
FFFFFFF8
FFFFFFFD
0000000B
00000015
00000012
0000001D
FFFFFFEF
FFFFFF81
FFFFFFD2
00000005
FFFFFFC1
00000006
0000000B
FFFFFFFB
00000005
0000000D
0000007F
00000014
00000006
FFFFFFF9
00000002
00000010
FFFFFFE6
FFFFFFF1
0000007F
FFFFFFB1
FFFFFFF1
0000001F
FFFFFFE3
FFFFFFEC
00000000
00000005
FFFFFFEF
FFFFFFE5
FFFFFFD8
FFFFFFF4
0000001A
0000007F
00000003
FFFFFFF8
0000000A
FFFFFFF9
0000000F
0000007F
0000000F
FFFFFFFB
00000012
FFFFFFFD
FFFFFFFA
FFFFFFD0
FFFFFFE5
FFFFFFC9
FFFFFFB4
0000001F
00000003
0000007F
0000001E
FFFFFFF9
FFFFFFEB
FFFFFFF4
FFFFFFF0
0000007F
FFFFFFDE
FFFFFFF6
FFFFFFE1
FFFFFFFB
FFFFFFED
FFFFFFDD
FFFFFFEE
FFFFFFE2
FFFFFFA7
FFFFFFD6
00000029
0000007F
00000035
0000001A
FFFFFFE2
FFFFFFEC
0000007F
FFFFFFD7
FFFFFFB2
00000036
FFFFFFF3
FFFFFFE0
00000001
FFFFFFF6
00000004
FFFFFFFB
0000007F
00000003
00000001
FFFFFFF9
00000001
00000016
FFFFFFE7
FFFFFFF5
0000007F
FFFFFFBF
FFFFFFC2
0000001B
FFFFFFD7
FFFFFFEE
FFFFFFF6
FFFFFF90
FFFFFFF5
FFFFFFFF
FFFFFFE9
FFFFFFF4
00000012
0000007F
00000012
FFFFFFEF
FFFFFFE2
FFFFFFDF
00000035
0000007F
0000004D
FFFFFFE3
FFFFFFCF
FFFFFFE3
00000005
00000048
0000006F
FFFFFFAB
FFFFFFA3
0000007F
FFFFFFC5
FFFFFFAD
00000001
FFFFFFD6
FFFFFF96
FFFFFFCD
FFFFFFA6
FFFFFFA9
FFFFFF99
FFFFFF9B
FFFFFFA5
FFFFFF81
00000000
FFFFFFFA
FFFFFFFE
00000001
0000007F
00000010
FFFFFFFC
00000017
00000002
FFFFFFF8
0000000B
FFFFFFFF
00000013
0000007F
0000000D
FFFFFFFA
00000007
00000007
00000024
FFFFFFD3
FFFFFFE8
00000024
0000002B
FFFFFFCF
FFFFFFF0
0000007F
FFFFFFE7
FFFFFFFF
0000000B
00000008
00000004
FFFFFFCD
FFFFFFEE
FFFFFFE6
0000007F
FFFFFFEA
0000000A
FFFFFFE4
00000010
FFFFFFFF
FFFFFF81
FFFFFFF4
00000006
FFFFFFF4
0000000C
FFFFFFF3
FFFFFFE8
00000020
FFFFFFC5
FFFFFFC0
0000007F
FFFFFFFE
FFFFFFE3
0000001B
00000002
00000009
0000000A
00000002
0000007F
00000008
FFFFFFFF
FFFFFFFD
00000000
00000005
0000000D
00000019
FFFFFFA7
FFFFFFDE
0000007F
FFFFFFFD
FFFFFFC8
0000000A
FFFFFFE4
FFFFFF81
FFFFFFE8
FFFFFFF9
00000011
FFFFFFFF
00000017
0000007C
00000015
00000011
FFFFFFF1
FFFFFFED
0000007F
FFFFFFF8
FFFFFF8C
0000001C
FFFFFFF6
FFFFFFFA
FFFFFFE0
FFFFFFE9
0000002D
FFFFFFF1
0000007F
FFFFFFF9
0000001E
00000005
FFFFFFCE
00000000
FFFFFFF6
FFFFFFFF
00000010
0000007F
00000010
FFFFFFFC
FFFFFFDB
00000006
FFFFFFFD
00000007
00000001
FFFFFFFB
0000007F
0000000A
FFFFFFF8
0000000E
FFFFFFFB
00000013
0000001F
0000004E
FFFFFFD6
FFFFFF81
00000053
00000000
FFFFFFB7
0000001D
FFFFFFCC
FFFFFF81
FFFFFFA5
FFFFFFD1
FFFFFFED
FFFFFFBB
FFFFFFE1
00000009
FFFFFFE3
FFFFFFFC
00000009
FFFFFFFB
00000033
0000007F
00000037
FFFFFFF4
00000034
FFFFFFF3
FFFFFFEB
FFFFFFA7
FFFFFFEE
FFFFFFEE
FFFFFFE2
FFFFFFF2
0000001F
0000007F
00000020
00000006
0000000C
00000005
0000000A
FFFFFF81
00000009
00000004
00000006
00000003
00000002
FFFFFFF8
00000006
FFFFFFE3
FFFFFF9C
0000007F
00000003
FFFFFFFE
FFFFFFFC
FFFFFFFF
0000000E
FFFFFFFE
00000003
0000007F
00000005
00000000
00000019
FFFFFFFF
FFFFFFF8
FFFFFFE8
FFFFFFF8
FFFFFFF3
0000007F
FFFFFFEB
FFFFFFFC
FFFFFFF0
FFFFFFFE
FFFFFFF9
00000002
00000007
FFFFFFEA
FFFFFFD7
0000007F
FFFFFFFE
FFFFFFF8
00000017
FFFFFFE4
00000004
FFFFFFFE
FFFFFFDB
0000007F
FFFFFFE6
00000008
0000000E
FFFFFFD1
00000002
FFFFFFD8
0000000C
00000018
0000007F
0000000C
0000000A
FFFFFFEE
00000006
00000013
FFFFFFED
FFFFFFD4
FFFFFFEB
0000007F
FFFFFFF6
FFFFFFE1
FFFFFFEC
0000001A
FFFFFFFE
00000004
FFFFFFFD
0000000B
0000007F
0000000B
FFFFFFFD
00000011
FFFFFFFA
FFFFFFBA
FFFFFFBD
FFFFFFED
FFFFFF81
00000037
0000005B
FFFFFFF3
00000047
00000036
00000010
00000017
FFFFFFD2
0000000A
0000007F
FFFFFFD8
FFFFFFF7
00000006
00000033
00000041
00000076
00000034
FFFFFFB2
00000004
0000007F
0000001E
0000007D
00000026
FFFFFFFA
00000011
00000015
0000001E
0000007F
0000001C
00000012
0000001A
FFFFFFF4
00000024
FFFFFFF6
FFFFFFE4
00000014
00000009
FFFFFFEB
FFFFFF81
0000001F
00000069
FFFFFFD9
FFFFFFEE
FFFFFFEA
FFFFFFDE
0000007F
0000002B
FFFFFFEA
00000001
FFFFFFF8
FFFFFFE6
FFFFFFD7
00000015
FFFFFFBD
FFFFFFCA
0000007F
FFFFFFE6
FFFFFFEC
0000004A
FFFFFFDF
FFFFFFC6
FFFFFFFF
FFFFFFFE
0000007F
0000000D
00000004
FFFFFFEC
FFFFFFD8
FFFFFFCA
FFFFFF8A
FFFFFFC5
FFFFFFA9
FFFFFFC4
FFFFFF81
FFFFFFAB
FFFFFFC5
FFFFFFAC
00000005
0000000A
00000001
00000006
0000007F
00000013
00000006
0000001F
0000000C
FFFFFFFB
FFFFFFF4
FFFFFFFE
FFFFFFF7
0000007F
FFFFFFFA
FFFFFFFA
FFFFFFFD
FFFFFFFA
FFFFFFFC
FFFFFFE0
0000001C
FFFFFFE8
FFFFFFB0
0000007F
FFFFFFF3
FFFFFFEE
00000007
00000005
FFFFFFF4
00000000
FFFFFFCD
0000007F
FFFFFFE4
00000004
FFFFFFE7
00000002
00000007
FFFFFFE8
0000000C
00000002
0000007F
FFFFFFEE
00000001
0000001B
FFFFFFEB
FFFFFFF4
FFFFFFEA
FFFFFFF4
FFFFFFF2
0000007F
FFFFFFF1
FFFFFFF8
FFFFFFFC
FFFFFFF5
FFFFFFFB
FFFFFFEB
FFFFFFFE
FFFFFFFE
0000007F
FFFFFFE7
FFFFFFFC
FFFFFFFB
00000000
FFFFFFD0
FFFFFFD0
FFFFFFCB
FFFFFFDD
FFFFFF81
FFFFFFCC
FFFFFFC3
FFFFFF8C
FFFFFFCB
00000014
FFFFFFD2
FFFFFFD0
0000007D
00000005
FFFFFF81
00000034
00000011
FFFFFFEC
FFFFFFF4
FFFFFFD8
FFFFFFEF
FFFFFFFF
0000007F
00000005
FFFFFFE8
FFFFFFC8
FFFFFFE8
FFFFFFF8
FFFFFFAD
FFFFFFF4
FFFFFFF5
FFFFFFCA
FFFFFFDD
00000028
0000007F
00000023
FFFFFFEF
FFFFFFD3
FFFFFFF7
FFFFFFF5
0000007F
FFFFFFDF
FFFFFFF4
FFFFFFE8
FFFFFFFC
00000002
00000012
00000006
00000013
0000007F
00000023
00000007
00000024
0000000B
00000003
00000014
00000009
00000011
0000007F
00000012
00000006
00000010
0000000B
00000013
0000007F
0000002E
FFFFFFDE
FFFFFFE0
FFFFFFF4
FFFFFFEA
FFFFFF9D
FFFFFFEA
FFFFFFFF
00000069
FFFFFFDD
FFFFFFA8
FFFFFF81
00000044
0000001C
FFFFFFB9
FFFFFFF2
00000008
0000000A
00000009
FFFFFFFF
FFFFFF81
FFFFFFF7
00000008
FFFFFFF2
00000006
FFFFFFF6
FFFFFFF8
FFFFFFF7
00000001
0000007F
00000003
00000000
00000002
FFFFFFFF
00000006
FFFFFFFE
00000007
FFFFFFFE
FFFFFF81
00000001
00000007
FFFFFFFA
0000000C
FFFFFFF7
FFFFFFE6
00000012
FFFFFFBD
FFFFFFB8
0000007F
FFFFFFFA
FFFFFFF9
00000012
00000011
00000031
FFFFFFFE
FFFFFFF8
FFFFFF81
FFFFFFB7
FFFFFFFF
00000018
00000047
00000018
00000000
FFFFFFF8
0000007F
FFFFFFE8
FFFFFF99
00000013
FFFFFFE1
FFFFFFF8
FFFFFFFD
FFFFFFF4
00000006
FFFFFF81
00000070
00000015
00000006
FFFFFFFD
FFFFFFF7
00000007
0000007F
00000002
FFFFFFF4
FFFFFFC1
FFFFFFF2
FFFFFFF9
FFFFFFF7
00000003
00000037
00000003
00000000
FFFFFFDE
0000007F
FFFFFFF7
FFFFFFE2
FFFFFFE4
00000023
FFFFFFF5
FFFFFFF7
0000001A
FFFFFFA1
FFFFFFDA
0000007F
FFFFFFFE
FFFFFFDA
00000021
FFFFFFFD
FFFFFFFD
FFFFFFFE
00000005
0000007F
00000008
FFFFFFFC
00000013
00000001
0000000A
0000002E
00000000
00000007
0000007F
FFFFFFF1
FFFFFFF3
FFFFFFD7
FFFFFFFB
FFFFFFFD
FFFFFFFA
FFFFFFF5
FFFFFFE9
0000007F
FFFFFFF2
FFFFFFE2
FFFFFFF7
FFFFFFF9
FFFFFFB7
00000003
0000000D
FFFFFFA2
0000007F
00000075
0000000E
00000073
FFFFFFB7
FFFFFFF5
FFFFFFE6
FFFFFFF2
FFFFFFE5
FFFFFF81
FFFFFFD9
FFFFFFE4
FFFFFFD5
FFFFFFE5
00000002
00000009
FFFFFFFF
0000000F
0000007F
0000001E
FFFFFFFA
0000001E
FFFFFFF8
00000008
0000002B
00000009
00000019
0000007F
FFFFFFD0
FFFFFFE5
FFFFFFAB
FFFFFFC8
0000001A
FFFFFFE8
FFFFFFF9
0000007F
FFFFFFCC
FFFFFFC0
0000000D
FFFFFFE2
00000006
00000013
FFFFFF9D
FFFFFFBD
0000003A
FFFFFFD5
FFFFFFAD
0000007F
00000041
00000013
FFFFFFE4
FFFFFFFB
00000008
00000006
FFFFFF81
0000007A
FFFFFFF8
FFFFFFFF
00000021
FFFFFFFD
FFFFFFD3
00000006
FFFFFFD9
FFFFFFBF
FFFFFFD7
0000001D
0000007F
00000022
FFFFFFFB
0000000A
FFFFFFFC
00000015
0000007F
0000001A
FFFFFFF4
00000022
FFFFFFF0
0000001C
FFFFFF94
FFFFFFDF
00000053
FFFFFF95
FFFFFFB1
0000007F
0000002A
0000001E
FFFFFFEA
FFFFFF99
FFFFFFC2
0000007F
FFFFFFC6
FFFFFF86
0000005C
0000000D
FFFFFFCA
FFFFFFEA
FFFFFFF1
FFFFFFF1
FFFFFFF4
0000007F
FFFFFFFD
FFFFFFE2
FFFFFFF4
FFFFFFEF
FFFFFFF4
FFFFFFE9
00000004
FFFFFFF9
FFFFFFBB
0000007F
FFFFFFFB
FFFFFFE4
0000000E
FFFFFFE9
FFFFFFE2
FFFFFFF7
FFFFFFD5
FFFFFFD6
0000000F
FFFFFFF0
00000015
0000007F
FFFFFFF9
00000000
FFFFFFFD
00000005
FFFFFF81
00000072
0000000A
FFFFFFED
00000008
00000002
FFFFFFED
0000000A
FFFFFFF5
FFFFFFCB
FFFFFFEA
00000005
FFFFFFF7
0000007F
00000063
00000002
00000013
0000007F
FFFFFFE7
FFFFFF94
00000048
FFFFFFD8
FFFFFFF6
00000003
00000011
00000007
FFFFFFB6
FFFFFF81
FFFFFFB0
FFFFFFFF
FFFFFFE5
FFFFFFED
FFFFFFF9
FFFFFFFD
FFFFFFFC
FFFFFFFE
0000007F
00000004
00000000
FFFFFFF7
FFFFFFFD
00000010
FFFFFF95
FFFFFFAE
00000021
FFFFFFAC
00000007
00000024
0000007F
0000001D
0000000B
FFFFFFF9
FFFFFFF9
0000007F
FFFFFFEF
FFFFFF98
00000011
FFFFFFFB
FFFFFFF1
FFFFFFFB
FFFFFFF8
FFFFFFF4
FFFFFFFC
0000007F
FFFFFF9A
FFFFFFF9
00000007
FFFFFFF3
FFFFFFF3
FFFFFFE2
FFFFFFF3
FFFFFFEC
0000007F
FFFFFFE7
FFFFFFEF
FFFFFFE9
FFFFFFF5
FFFFFFE2
FFFFFFED
FFFFFFFE
FFFFFFFD
0000007F
FFFFFFFD
00000002
FFFFFFF1
FFFFFFE9
00000020
FFFFFFDE
FFFFFFF1
0000001D
0000007F
FFFFFFBA
FFFFFFBF
0000000F
00000030
FFFFFFFA
00000006
00000006
0000000A
0000007F
FFFFFFF9
FFFFFFFF
FFFFFFF7
FFFFFFEF
FFFFFFFD
FFFFFFFD
FFFFFFED
FFFFFFF9
FFFFFFDF
FFFFFFEC
FFFFFFEB
FFFFFFF1
0000007F
FFFFFFF7
FFFFFFF7
FFFFFFF9
FFFFFFF0
0000007F
FFFFFFFB
FFFFFFE7
FFFFFFB9
FFFFFFEE
0000006B
0000007F
FFFFFFFB
00000029
FFFFFFB4
FFFFFFAE
FFFFFFF4
FFFFFFB3
FFFFFFDB
FFFFFFF7
FFFFFFEE
FFFFFFFD
00000002
FFFFFFE2
0000007F
FFFFFFF8
FFFFFFF4
0000001B
0000000D
FFFFFFB0
FFFFFFD1
0000007A
FFFFFFD5
FFFFFF9F
0000007F
00000025
FFFFFFDD
00000027
FFFFFFEF
FFFFFFEE
0000007F
FFFFFFF1
FFFFFF90
00000020
FFFFFFE8
FFFFFFF6
00000022
00000031
00000012
00000029
FFFFFF81
FFFFFFE7
00000002
FFFFFFE9
00000018
FFFFFFFD
FFFFFFF9
00000003
FFFFFFF1
0000007F
00000001
00000006
00000004
FFFFFFF0
0000000B
FFFFFFE3
00000007
FFFFFFFA
FFFFFF81
FFFFFFFE
0000000F
FFFFFFD1
0000000B
FFFFFFF9
00000001
FFFFFFFC
00000002
0000007F
FFFFFFFA
FFFFFFFB
00000005
00000001
FFFFFFFC
00000008
FFFFFFF8
00000008
0000007F
00000011
FFFFFFFD
00000020
FFFFFFFD
00000003
00000003
00000004
FFFFFFF3
FFFFFF81
FFFFFFED
FFFFFFFC
00000007
FFFFFFFF
FFFFFFF1
FFFFFFFE
00000001
FFFFFFF5
FFFFFFDE
FFFFFFD3
00000009
0000007F
0000001E
00000005
00000008
00000001
0000007F
FFFFFF83
FFFFFFF1
0000000B
FFFFFFFE
00000003
00000001
FFFFFFF0
FFFFFFFC
FFFFFFEA
0000007F
FFFFFFF3
00000001
FFFFFFF2
00000002
00000003
0000006C
0000000E
FFFFFFEA
0000007F
00000013
FFFFFFC3
FFFFFF8E
FFFFFFD4
00000005
0000000F
00000004
0000000D
FFFFFF81
00000010
00000007
0000000E
00000006
FFFFFFF3
FFFFFFF6
0000002A
FFFFFFE6
FFFFFF8B
0000007F
FFFFFFEE
FFFFFFEE
00000033
FFFFFFE2
FFFFFFEA
FFFFFFE3
FFFFFFEF
0000007F
FFFFFFE1
FFFFFFE9
FFFFFFE3
FFFFFFEC
FFFFFFD8
FFFFFFA6
FFFFFFC2
00000054
FFFFFFD1
FFFFFFA1
0000007F
00000039
FFFFFFE6
FFFFFFED
00000077
FFFFFFD9
FFFFFFB4
0000007F
00000026
FFFFFFEB
FFFFFFB7
0000004A
00000007
0000000B
FFFFFFF2
FFFFFFFA
FFFFFF81
FFFFFF9A
FFFFFFCE
00000002
00000031
FFFFFFF0
FFFFFFAB
FFFFFFE5
00000006
FFFFFF81
00000021
00000051
0000007B
00000044
FFFFFFF9
FFFFFFFB
FFFFFFFE
00000007
0000007F
0000000C
00000001
00000010
00000001
FFFFFFCB
FFFFFFAB
FFFFFFC1
FFFFFFAA
FFFFFF81
FFFFFFA9
FFFFFFAD
FFFFFFC2
FFFFFFA2
FFFFFFE2
0000000D
00000020
FFFFFFF3
FFFFFF81
0000006D
FFFFFFE8
FFFFFFFC
0000002C
00000020
0000007F
00000026
FFFFFFEB
FFFFFFDC
FFFFFFE5
FFFFFFE9
FFFFFFC4
FFFFFFE7
0000000A
00000055
00000000
FFFFFFF5
FFFFFF81
FFFFFFEF
00000003
00000020
00000008
FFFFFFFE
FFFFFFFE
FFFFFFFB
FFFFFFF7
0000007F
FFFFFFFE
FFFFFFFE
FFFFFFFE
FFFFFFFC
FFFFFFFC
FFFFFFF8
FFFFFFF6
FFFFFFFE
FFFFFF8D
FFFFFFE8
0000000B
0000007F
00000010
FFFFFFEE
FFFFFF8D
FFFFFFF0
FFFFFFF9
FFFFFFF1
FFFFFFEB
00000027
0000007F
00000020
FFFFFFED
FFFFFFD7
FFFFFFFD
FFFFFFED
0000007F
FFFFFFEB
FFFFFFF1
FFFFFFEF
FFFFFFED
FFFFFFF9
0000001C
FFFFFFFB
00000018
0000007F
00000014
FFFFFFF1
00000018
FFFFFFF6
00000012
FFFFFFE3
00000003
FFFFFFF5
FFFFFF81
FFFFFFF6
00000000
FFFFFFF5
00000012
0000000D
FFFFFFD4
0000000C
FFFFFFE2
FFFFFF81
FFFFFFE1
00000013
FFFFFFCA
00000012
FFFFFFF7
00000007
FFFFFFFA
00000000
0000007F
FFFFFFE9
FFFFFFF2
FFFFFF9D
FFFFFFEA
00000017
00000018
0000001D
00000000
0000007F
0000001D
00000005
00000017
00000005
0000000E
00000026
00000004
0000000E
FFFFFF81
0000001F
FFFFFFFF
FFFFFFF6
00000003
FFFFFF8B
FFFFFFDC
FFFFFF81
FFFFFFE8
FFFFFFF8
FFFFFFD3
FFFFFFA4
FFFFFFBA
FFFFFF89
0000001B
FFFFFFE6
FFFFFFFB
0000007F
FFFFFFDE
FFFFFF9F
0000001F
FFFFFFEA
FFFFFFF8
00000001
FFFFFFDF
FFFFFFFB
FFFFFFE9
0000007F
FFFFFFF5
FFFFFFF9
FFFFFFF6
00000003
FFFFFFEA
FFFFFFF9
0000000E
FFFFFF81
0000001D
00000067
FFFFFFE1
FFFFFFF1
0000001A
FFFFFFAD
FFFFFF9F
00000000
FFFFFF91
FFFFFFD7
00000074
FFFFFFF4
0000004D
0000007F
00000002
00000005
FFFFFFFB
FFFFFFDF
0000007F
FFFFFFDF
00000003
FFFFFFFC
FFFFFFF5
FFFFFFFB
00000007
FFFFFFFA
0000000C
0000007F
00000015
00000008
00000008
00000004
00000003
FFFFFFFB
FFFFFFF9
FFFFFFEA
0000007F
FFFFFFCE
FFFFFFE5
0000002B
00000001
FFFFFFFF
00000013
FFFFFFFA
00000003
0000007F
00000012
00000002
FFFFFFFC
00000006
00000008
FFFFFFF5
00000010
0000003E
FFFFFF81
0000005C
00000001
FFFFFFF5
0000000E
00000029
FFFFFFCA
FFFFFFE4
0000007F
FFFFFFB7
FFFFFF9C
00000048
FFFFFFFB
FFFFFFF3
FFFFFFFC
00000013
FFFFFFEB
FFFFFFE8
0000007F
FFFFFFC2
00000007
FFFFFFFA
FFFFFFF6
00000007
FFFFFFF5
00000003
FFFFFFE8
FFFFFF81
FFFFFFDC
00000009
FFFFFFD4
FFFFFFFA
FFFFFFBF
FFFFFFC7
00000003
FFFFFFBA
FFFFFFD1
0000007F
00000001
0000005A
0000001B
FFFFFFFC
FFFFFFFA
FFFFFFFE
00000003
0000007F
00000009
00000007
00000007
00000003
FFFFFFFB
0000000E
FFFFFFF9
0000000A
0000007F
00000012
00000001
00000007
FFFFFFFD
FFFFFFEE
FFFFFFF5
0000001E
FFFFFF93
FFFFFFEC
0000007F
FFFFFFF2
FFFFFFF5
00000018
FFFFFFF4
00000063
FFFFFFA9
00000005
00000008
FFFFFFCF
FFFFFFFB
FFFFFF98
0000007F
FFFFFFEE
00000012
00000005
FFFFFFDB
0000007F
FFFFFFF0
00000002
00000018
FFFFFFF5
00000000
00000005
FFFFFFF2
0000000C
FFFFFF81
0000005A
00000000
FFFFFFF3
00000002
00000005
00000013
00000002
FFFFFFFF
0000007F
00000005
00000002
0000000D
00000003
0000001D
0000007F
0000001C
FFFFFFE1
FFFFFFB6
FFFFFFD7
FFFFFFF0
FFFFFFBE
FFFFFFEF
00000036
0000000F
FFFFFFFC
FFFFFFE1
0000007F
00000063
FFFFFFE9
FFFFFF9B
FFFFFFC2
FFFFFFFA
FFFFFFEC
FFFFFFFC
FFFFFFEE
0000007F
FFFFFFF0
FFFFFFF7
FFFFFFEF
FFFFFFFC
FFFFFFFA
FFFFFFF1
00000003
FFFFFFFB
0000007F
00000002
FFFFFFFC
FFFFFFE8
FFFFFFEC
00000038
FFFFFFF1
FFFFFFE8
0000007F
FFFFFFA4
FFFFFFD2
FFFFFFF5
FFFFFFE5
FFFFFFFD
00000046
00000066
FFFFFFC2
0000006D
00000043
FFFFFF86
FFFFFF9D
FFFFFF81
00000040
00000003
FFFFFFEF
00000005
FFFFFFFA
FFFFFF90
FFFFFFF7
0000000F
0000007F
00000006
FFFFFFF2
FFFFFFF8
FFFFFFF9
FFFFFFFE
0000007F
FFFFFFFE
FFFFFFFA
0000000B
00000004
FFFFFFFB
FFFFFFF7
FFFFFFFA
FFFFFFF7
0000007F
