FFFF92E2
FFFFB682
00002C47
FFFF69ED
FFFF1C34
00002C5E
FFFF00D3
00010ED9
00012E44
00004E6A
00001AF2
0000460B
FFFF402E
FFFEC63C
FFFEF8F9
FFFF97D5
00000F28
00008030
00002547
00005CA4
FFFEF0D1
FFFF16B9
FFFEE81D
FFFFF4D2
FFFF7480
FFFF24E0
FFFEC9A0
FFFF0460
FFFF208A
00000B37
FFFF06C4
FFFF33EC
FFFF4C10
0000152A
FFFFCA5E
FFFFE054
00005726
FFFFFCD0
FFFF9255
FFFFCAB1
FFFF1A86
FFFE6670
FFFEA563
000013F8
FFFE9D2B
FFFF3E2B
FFFF2185
FFFF5C1D
FFFF081E
FFFE929E
FFFEA7CF
0000A5A0
FFFEE799
FFFF1DAA
FFFEEDD8
FFFF0C19
FFFEEC60
FFFE4C12
FFFE7048
FFFE7AF6
FFFFDB3E
FFFF613D
FFFF6C06
FFFFE373
FFFF1391
FFFF859E
FFFF9A3F
FFFF0B64
FFFF309E
FFFF8A8B
FFFEEFB5
00002ACD
FFFFAC15
FFFFDB2D
FFFFB2E7
FFFF3B4A
FFFFBC4C
FFFF5A2C
FFFFE702
FFFF9711
00007752
FFFF2D78
000009C4
000125E7
0000821C
FFFFF025
0000DEAB
0000BA58
0000A9FA
FFFFD5FB
FFFF6B54
FFFF5898
FFFE0BBC
FFFFE6CE
000079B2
FFFEFD38
0000366E
0000737B
00000FE3
00009B80
00001516
000008B8
FFFF26AA
FFFF4B23
FFFF9243
FFFF6E9C
FFFF44AC
FFFE8257
FFFE9734
FFFF68F0
FFFF07BC
FFFE4630
00002626
00004DF5
FFFFB8A2
FFFF59EA
FFFF2DC5
0000C538
FFFFE886
FFFF673C
FFFF6B24
FFFFEEE1
00001889
00008CA4
000050BF
FFFFD0B5
0000918C
FFFE9F9D
FFFF762D
FFFEFC6F
FFFF6D8B
FFFE9EFA
FFFF2D19
FFFE1216
00001763
FFFEC721
00000699
FFFFB994
FFFF007F
FFFF314E
00004125
FFFF6145
FFFEEBAE
FFFF2975
FFFFD6F6
0000CE7D
FFFF65D5
FFFECBD0
FFFF9573
FFFF74FE
00001302
00014D5C
000096E3
FFFF525D
0000A93F
0000132C
00007125
00013918
0000AEAF
00001873
000092F6
000019AA
FFFF9B00
0000C9AB
00000215
00001707
00004A9C
0000C03F
000053A7
00009389
FFFFC131
0000528F
000078D9
00006A78
FFFFE3FD
00000AA8
0000FBE7
FFFF751D
FFFFB3C8
00003EB3
00005818
00002D73
00001D03
0000A1F7
FFFFE9FE
FFFFF8AE
00008DAA
FFFFF145
00007B9A
00000B6C
00000B4F
0000456C
0000149D
0000D687
FFFF428D
0001175E
00002C07
0000429D
00007945
000097B8
000075C8
FFFFED7B
00000D96
0000537A
FFFFA501
00000615
000075CD
0000878E
0000B8BD
FFFFB91F
00003FE6
FFFFCEC7
00002FB2
FFFFB1F3
FFFFDA0A
FFFFD67A
00005969
FFFF5A53
FFFF9E83
000015C0
0000BEFF
0000B3DE
00008600
FFFFFB9C
000051C4
00006F38
0000456E
0000B7F3
00003B0B
FFFFD830
00001DD9
0000CF0A
FFFFF0B1
FFFFF0AB
00002A71
0000E47A
00006B3F
FFFFF6BC
000062B7
FFFFA112
00009118
000035FF
0000D953
0000A93E
00003BD3
0000118E
000076D8
0000B978
000125CC
FFFFF3A3
0000253A
00013FD0
FFFFB7CA
00011241
0000EEB7
00002D4A
000051DB
FFFFEB83
00003EE7
00005C83
00002627
FFFFA611
0000D964
FFFFC7E3
00005F0B
0000972B
00000125
000099A0
0000E961
FFFF9DE1
FFFEDB11
FFFFC774
FFFF470C
00009C90
FFFF79E6
FFFF9AD2
FFFFA23F
FFFF8D29
FFFED246
FFFF36E1
FFFFBCA2
000062C1
0000CB58
0000A5D7
00005B48
00006EB2
FFFF32BD
FFFF7F7F
FFFFECDE
FFFEB026
FFFFB2AF
FFFF8459
FFFFFD84
FFFF79BD
FFFEC0C1
FFFEA435
FFFF871F
FFFE3CDC
FFFF4DB8
FFFFAA24
FFFF7FF8
FFFF69F4
00005541
00003716
FFFF9552
FFFECE58
00005A8D
FFFF5D31
FFFFBE09
FFFFFB64
FFFF5090
FFFFD4D8
FFFF95E9
FFFEC7E2
0000313E
FFFF70C4
FFFF8992
FFFF45D7
FFFF2C6B
FFFFCE90
FFFEFA58
0000C836
00004249
FFFFC999
FFFFA67C
FFFF6338
FFFF7D8F
FFFF88A1
FFFFAEBB
FFFFA038
FFFF7127
FFFFBDCC
00007C44
00002BBA
FFFFFB9B
FFFFA6C7
FFFDF356
0000A065
00014622
FFFFC4ED
00008235
00009A2D
000039C3
FFFF0FC2
FFFF24AA
0000DDC6
FFFF6B39
FFFEA16E
00009899
FFFEAF4B
FFFF2E4B
FFFF3412
FFFFC217
00006535
FFFFB3FA
000183B5
0000B450
FFFFF97C
00003FFA
00002952
FFFFCB66
0000295F
00003CA3
FFFFEC8D
FFFF363D
FFFF5C8A
FFFE1F3B
FFFF5058
FFFF1433
FFFF0BEA
FFFFBBA0
0000558D
FFFF72CF
FFFFACD2
FFFF8D1D
FFFF381E
FFFF3B6F
000068C2
000037F5
FFFF874B
0000C012
FFFFA54B
0000345F
FFFFC73F
FFFFFD7F
00000119
FFFF7094
FFFF8DFE
FFFF71D8
00003C2C
FFFFD326
FFFF5F55
00003CE5
FFFF5F5F
00002D72
00004A62
000027DA
FFFFEFC6
000006FA
FFFF7D71
FFFFA46C
00006BBE
00000E8C
FFFEBC6D
FFFF5080
FFFF7A05
FFFF5BF4
FFFF9C72
00005980
00006440
FFFFA105
FFFFD13A
0000F0F5
0000457E
FFFFB550
00003B91
FFFF5A04
000095A0
FFFF9C65
FFFF67F6
0000C6AA
FFFFE13B
FFFFFF0C
FFFFBE87
FFFF9BF1
FFFF717D
0000FC68
0000FC7C
0000A3CA
00002E5F
FFFFB596
FFFFDA51
000010FA
00001C8A
FFFFD2E5
00001CDF
FFFF8D2F
FFFFE4D8
00002DA3
0000510C
00005D40
FFFFC3B6
FFFF9C15
FFFF7918
FFFFCC57
FFFF37F1
FFFF6F76
0000C6D2
00000716
FFFF7A2D
FFFFD1A0
000020F4
000081D9
FFFF3A66
FFFFC2B9
FFFF79C0
0000B874
00001171
FFFFC99A
000004FE
FFFEDF88
000033D1
0000A45B
0000FBF7
FFFF7A9F
FFFFB857
FFFFBFD9
00004874
FFFF3C84
00019802
000031D2
00008097
000090E2
00004F3F
FFFFC8A5
FFFFFBF7
00010E39
000040A5
FFFFAAEC
00001975
FFFF398B
FFFFDAAD
FFFFFEF1
FFFFB906
FFFF5F90
FFFF6888
000005EC
FFFFF141
0000EA7C
FFFFBDDD
0000BE3E
0000D38F
FFFFFADD
FFFF21D5
0000935E
FFFF1CEA
FFFFBCB6
FFFFFAB0
0000348C
0000A7BB
FFFE4F6C
00008325
00004CBC
0000B077
000007E5
0000709D
FFFFBCD3
00005575
0000264F
FFFFAFDD
FFFFB118
FFFF5441
0000840F
00001353
00007ADB
00005826
FFFFF5E8
0000290B
0001682D
FFFFF338
FFFF886F
00004932
00007C76
00002B79
0000A037
FFFF4BAE
FFFFB7E1
FFFFBA2D
0000D357
FFFF8101
FFFFD737
00007EDE
FFFFCF22
FFFF7DAE
FFFFB025
FFFFDA64
FFFFE8D2
0000405F
FFFFE31A
FFFFE4DB
000004B9
0000A542
00004479
00001C03
00004ACB
0000C388
0000F590
FFFFEB47
FFFF5A72
FFFE4C0B
FFFF96A5
FFFF6746
0000CD98
FFFF96F1
FFFF8F65
FFFFBB36
00003CA7
FFFFD2F6
00005D31
00003D93
0000430A
00004671
00005945
FFFF5A51
FFFFC103
FFFFA96D
000061FD
00007675
00005C23
FFFF735A
0000E709
FFFFED69
00006B45
FFFF9613
00005A23
FFFFF689
FFFFF04B
0000F2BD
00002EE8
FFFFBCD7
FFFFAD96
FFFFF62C
0000133D
00001FFC
FFFF70B7
00004949
00000E33
0000B7EA
00003C6A
00007A2B
FFFF9AD3
FFFFDC1A
FFFF4B3C
000035E2
000056A7
000097B5
0000C3F2
FFFF30AF
FFFFDD6D
FFFFF7D8
0001017E
FFFFFE5C
FFFFC49E
00002F3E
000037E4
00000360
000014C9
00000225
FFFFA247
FFFFCFEC
FFFFC17E
000016B0
00002CAE
00001464
FFFF8855
0000203A
00004F73
00000FF6
00016815
0000809E
00000FAC
0000A927
00005F44
FFFFD9DE
FFFF92B7
FFFFE083
000028E7
FFFFB871
FFFFAC64
FFFF9E03
FFFF85DE
00004640
000016F5
FFFFEF77
FFFFA6B7
00003FF8
0000D0C8
0000665B
00003C70
000063CF
FFFF553B
0000F976
FFFFE704
0000D5B7
FFFFC5A5
FFFFC73C
FFFF9703
00007371
FFFEAAE2
FFFED799
0000E964
FFFFD357
00002ED3
00006080
FFFFBC6E
FFFFFC60
FFFFC4FA
000028E2
FFFF8E3F
FFFFD602
FFFFD696
FFFFEC9D
FFFF7347
FFFF4060
FFFFE0C7
00000CBF
0000790B
00002DC3
FFFFD722
FFFFDA6F
00009070
000020DD
FFFF9EFF
FFFFED57
00009CA5
FFFF4889
00016A7A
FFFFAC5A
00005993
FFFFD45B
000001EF
FFFFACD7
FFFF4E59
FFFFFC27
00006826
FFFFCF5B
FFFF6903
FFFF3C46
00006A31
FFFFC4A2
0000C87C
0000834C
FFFFF184
0000CA57
FFFF8C92
00004719
00004464
FFFF93ED
FFFF22DE
0000D375
0000456F
00002949
FFFFA9C2
FFFF7DAA
0000336B
0000475A
FFFF1D97
000059B8
00002646
00000249
00006621
FFFFDD56
FFFF7C41
FFFF50BC
FFFFC081
0000CC88
FFFFBB14
FFFFF7AC
FFFEF140
000053C4
FFFFA580
FFFFBEA9
0000111A
00003E85
000032DE
00011166
FFFF5C9F
00011905
00008A8F
FFFF4E8A
00002935
0000E97B
FFFFAF5E
0000D92E
FFFF0FF3
FFFFE8BB
000027EF
000018C5
000019B0
0000172F
0000B425
FFFF9D48
000040E1
FFFF0F88
000066EB
FFFF5615
FFFFEF56
00009055
FFFFAC23
00006FFA
FFFFF485
FFFFD932
00003715
00007307
00008DAF
00003BB5
0000AD92
00005980
000176A3
00000A57
FFFF7E95
00001741
00002598
00005D64
0000600D
000022A6
00005E3D
FFFFBC6F
00000736
00001D6B
FFFFF146
FFFFBDE8
00007BB1
FFFFF676
FFFFFAE0
FFFFC867
00004338
FFFFBC65
0000F9B7
FFFFFCE4
000072A8
FFFF8BAC
0000302E
0000201B
00014E28
FFFFCF28
000069DF
0000C383
FFFFE0D6
FFFF8579
0000F751
0000397B
0000939F
0000095E
FFFF8208
000026CA
000095A8
00000B04
FFFF8B92
FFFED2F0
FFFFD0A8
00004551
FFFFA7E7
FFFF9795
00005766
000025A6
FFFF90DA
00003156
00006A22
00000567
000032E0
0000E232
FFFFE392
0000E135
FFFFB8D3
FFFF3B23
00007ED4
FFFF8641
00008F0D
000000F2
FFFFC277
FFFF5BAD
00002216
FFFFE79B
FFFFB02E
FFFE8414
0000A6B4
FFFFEA97
00005E23
000015BE
0000CDF1
0000321B
00005336
FFFFA96A
FFFF6327
00007C4C
00004085
00003C3A
FFFFD02B
FFFF1FD8
0000E4DC
FFFFBA5E
00000C72
00000C4E
FFFFAF60
FFFFEFC3
0000524A
00006357
FFFFC895
0000A58D
0000A38D
0000633A
0000B1E1
FFFF68E5
FFFFDECD
0000337C
00008F59
FFFFCDA9
FFFF2C0A
00004485
00001AEF
00005AB5
0000F66F
FFFF7C02
FFFF8C9B
0000499A
00007153
00002DE3
00000DBE
FFFFB735
00004FCE
FFFFCA5C
000076CA
FFFF694C
FFFF5B88
000067F6
000033A1
FFFFDBE6
00003DF2
00006A8C
00005CE3
FFFF8B29
000097B3
0000D963
FFFFF2F6
FFFEF887
00000B8D
FFFFFF4E
FFFF5216
00008847
FFFF75C6
000075C2
FFFFF9BF
FFFF2602
FFFF0AA5
FFFF0F7F
00001089
FFFFF1D8
0000FE23
00011E12
FFFFE83D
FFFFE2BF
0000A16D
FFFFCA32
FFFEFD11
FFFEFBC4
FFFF0AAA
000089B3
FFFF442F
000047F5
0000A8F8
FFFFE2E2
000009D6
FFFF4678
FFFF2F99
FFFFD099
FFFFF0D8
FFFFFE4C
00004F22
FFFF904B
FFFF93D6
000046E8
FFFEE504
00004456
FFFFB3D4
FFFF74D7
FFFF9681
FFFFB7F0
FFFFB821
00002F81
FFFF9551
FFFFEA4A
FFFFD9D7
FFFF10C0
FFFFCECD
FFFFA208
000006CD
00001518
FFFFECFD
FFFFE85F
FFFFB8A0
FFFFAD1F
FFFFD53D
00000FDC
000017F4
FFFF3BFC
FFFF3310
00000A10
000017BE
FFFF6642
FFFFCCA9
FFFF9A70
FFFF5A4E
00000D6C
00004067
FFFFF19A
FFFFF273
FFFF8157
00002F83
0000396C
FFFFC2F6
FFFF8545
FFFFA23C
FFFF9B86
FFFF6457
FFFF6BBE
0000196D
FFFF628C
00007B2D
FFFFEE29
FFFF7B4B
FFFFFD99
FFFF07DB
FFFF5C19
FFFE40A6
FFFF629A
FFFDA75E
FFFEDCA7
FFFF39A5
FFFD995C
FFFEAF1C
FFFFADFC
FFFFA37A
0000302B
FFFEF862
FFFED783
FFFE8D49
00008315
FFFF9292
FFFF02AE
FFFEE832
FFFF10E5
FFFFA486
FFFF2314
FFFFC960
0000521E
FFFFF68D
FFFF3CC8
00006138
000033E8
