FFFFE4E4
00005CBB
00003574
000095E2
000014D9
0000E4F3
00003CA2
00004073
0000A770
FFFFE7D2
FFFFEEB5
FFFFD09A
00002FF1
00004281
0000E284
FFFFD48B
000066C2
00007A30
0000130B
0000033E
FFFFFF37
000078F3
00007850
FFFFF21F
C0000000
FFFFDC6C
000074A9
00002E35
FFFFEA69
00012759
000018D6
FFFFFA62
FFFFE103
00001768
0000A002
FFFFFFB2
000034AF
00006E0A
0000397B
FFFFFF78
00002386
FFFFD96C
00000DD2
0000FE41
FFFFFB89
FFFFEC1F
000029A7
00001FFA
0000B9CE
00000717
FFFFFDEC
FFFFEE76
0000D64A
00003110
000015B8
FFFFF945
000071B8
DB6BE2C0
000002E9
000020B5
0000BD62
0000EEFA
FFFFF8C7
00009F6D
0000A9F4
00009B01
FFFF85A2
FFFFFD75
0000F68B
FFFF9BF1
FFFFE517
00007CC7
FFFFD18A
000260F0
0002D865
00006310
FFFFA70C
FFFFD63B
0003A5D0
00006AA5
000095A9
FFFFAE1A
FFFFD9B3
00003517
0000551E
000042E8
C0000040
000019DC
FFFFBDB2
0000C921
000012CE
0000E9F3
FFFFFD01
0000E49D
0000129C
0003F0F4
00009615
000230AD
000039EE
FFFF6375
FFFFCA22
FFFFC5FC
FFFFBF7D
0000B05D
0000B1E9
FFFFD4C7
000253A4
00003C0E
FFFFC823
C0000000
0000C49D
00009B13
00003CD9
000089EE
FFFFA127
00005873
FFFFE890
FFFFF1B0
FFFFC558
0000D7D9
000030A6
FFFEF753
000132AC
0000FEC0
00003E6D
000090AE
FFFFD521
FFFFE444
00008DFC
0000D1F5
00008216
00006066
00009AC6
00000E12
0000544B
FFFFD01E
000009B2
0000371B
FFFF7636
FFFFF5AD
00002FD5
00001F96
FFFFB8B0
FFFF4226
00000C1A
0000416D
C0000000
0000DA90
00009893
FFFFAA46
0000A35A
00004935
FFFFCD20
00014DED
0000384A
C0000000
0000EEA3
FFFFA9E9
000001AB
FFFFDAA1
000080E8
000106FA
FFFF965D
FFFF011B
00005E5A
0000111E
00000124
00017B40
FFFE910A
FFFFD943
FFFF8E01
FFFFADB2
FFFFD338
0000067E
FFFFA757
0000A261
000065C3
00010723
0000918C
FFFFB862
00011957
000043FE
000080CA
FFFFA64F
00000649
0000960B
FFFFFC51
000001FD
FFFF8BA7
FFFFDE4C
000044B1
0001CC4B
0001A0EF
0000622E
FFFF4479
FFFE6B07
00005040
00017195
000002EF
00018F25
FFFF7D1A
0000A59B
000050B6
FFFFB3A5
FFFEA48A
FFFFD2FD
FFFF6AF5
FFFF2FB1
000063E3
00016A9B
FFFF92A7
FFFF7015
0002AA15
00007658
000106EA
0000DFDF
FFFFF619
FFFF22EC
C0000000
00001BDF
FFFF8EC7
FFFF66B4
00028783
FFFF1C09
FFFFA30E
FFFFC765
FFFFA9A0
FFFF1396
FFFF2920
0000643D
FFFF8763
00008EB8
FFFFE850
FFFF7DB8
FFFFA7D4
FFFFC4D9
0000CF95
000076F3
FFFF2D32
FFFF9D04
00028A96
0000DD18
FFFE951A
0001383B
FFFF7E0B
0000AA6E
FFFF8E84
FFFEC8E1
FFFF2916
0000B9E9
FFFF9FDF
00004E60
00000F83
00002654
0000296A
FFFF42C3
FFFF9460
00026107
FFFF159F
000008BA
FFFF49E4
00003F67
FFFF7D5A
0001DF0E
FFFF85E7
00008A43
FFFFA0CF
FFFF9180
FFFF9580
0001EA10
00001CC0
000087F3
FFFF261F
FFFEF305
00002AAE
0000286C
FFFF9F76
FFFFE005
FFFFCDF6
00001425
0000BCEF
FFFF84F5
FFFFF62E
00032596
FFFF6748
000023AB
00003B3C
00004881
0000935A
00004533
000054AC
0000231D
FFFF9E79
000034A3
FFFF6416
FFFF2FA2
00022EB0
FFFEFAE0
00006F49
0000D9CC
0000346D
FFFF116C
000079AD
FFFF9665
0000846F
FFFF155A
FFFEEC8C
FFFFAAA6
FFFF5D39
00014019
000077E5
00011DF1
00017F33
00002DBF
00005A15
FFFF5105
000059FD
FFFF3156
00005AA7
FFFD9395
0000276A
00009D54
FFFFECE0
0000777D
0000E5D8
00006A66
FFFFDDE9
00006F86
FFFFDDE0
000052E0
FFFF8E32
00002C4C
FFFFACB4
00008660
0000C40F
0001124C
00008810
00005BC5
0000C5F1
0001EF0C
00001451
FFFFECF4
0001B5D8
00018BC4
0000C5A8
00000F22
00015C73
00006BB4
00006D99
0000343C
0000670D
00016464
000105BD
0001AE54
00011BEE
000181D8
00004388
0000632B
FFFFB1B1
00007147
00023409
FFFFFC7A
0001536D
00019D6F
0000341A
00010FCF
FFFFCE8C
FFFFCC6E
FFFFD7F5
FFFFD8C9
0000B88C
00008AA8
0000012C
0000DEC3
00005907
0000985A
FFFF6EE9
0000D9AE
000047D6
FFFF05D0
FFFFC82B
FFFFD413
0000267B
00019E1F
0000001B
0000BD1D
0000357F
FFFFDDC9
00017948
FFFFA7D6
0000F1E3
00003AA4
0000B44A
0001BB0B
00004911
FFFFF1CA
000092E1
00005D41
0000675F
000083A1
0000D59E
00017613
00005B55
FFFFE58B
00003991
0000C533
0000DBD5
000040BA
00015265
0001407D
0000CF8E
00002EC9
FFFFBBF4
0000A413
FFFFA7AE
0001785B
0000501D
00007976
0000BDC4
00006E53
0000062A
0001CE23
0000ADD1
FFFF827A
0000C131
00001ACD
0000BCDF
000002FE
0000ED3C
00010FDA
000111EA
00001E79
0000EC16
000168BC
00005733
FFFFB787
FFFFA1CD
FFFFCF78
0000C61D
0000B297
0000EA99
00000FAF
00004CB0
0000127D
FFFFF511
FFFEDE32
0001B02E
0000510E
0000C3AA
0000E7B3
0001BDE8
0000ABFB
0000538D
FFFFAC68
00005BE0
000038B7
0000389F
00005889
00002329
FFFF2243
FFFF9353
00009CEA
0000238C
FFFFD956
0000A6BA
FFFF74F2
000081F8
00007E8A
FFFFB4BE
00004E59
FFFFACBD
FFFFB33B
FFFFD67F
FFFFEDE0
FFFFD5D1
00005B66
0000661B
000041BC
FFFFFA30
00016545
0001630D
00002EAC
00004E7E
000071D1
00004B33
FFFFE710
00004381
FFFFEE60
0000490E
FFFF7CD8
0000BA97
0000471E
00000217
00008FF1
00007C14
FFFF1535
FFFFD1BB
00004ACB
0000C13C
FFFF8608
00003A8D
00003BE4
00003D65
0000667E
00017F00
00005DA3
0000852A
FFFFCEF0
000064EE
00009E36
FFFFF344
00001813
0000DD61
0000FCAF
0000DF8D
FFFFFAA1
FFFFA3FF
00001B66
0001227C
000091B1
0000FDFB
FFFFC2B9
00001825
00009A0B
FFFFE285
00012C89
0000F7CA
0000AF52
0000168D
00001401
FFFFF0D9
0000B75D
0000A8CE
00007296
FFFFD021
FFFFF7B3
00012A65
00006252
0000ACB3
FFFFA709
0000D660
00003FA7
0000BAF4
000035F9
0001B68B
FFFF9F21
0000BFBA
0000BFA1
000076FF
000015B8
000124AA
00004C2E
000118D1
00007D20
FFFF62BC
0001EC30
00007CEA
FFFF44CE
0000DE21
0000B1A5
000050BB
FFFF0967
0000D25A
00010374
00004E24
00002A7D
000035C0
00003F4A
000134FB
FFFF6726
FFFFDF87
00002820
000061EF
FFFFD442
00003584
FFFF8186
FFFC594C
0000B5B3
FFFE743F
FFFFF7D4
00007B1C
FFFF4C85
000031D4
FFFCF630
0003B888
00005730
FFFFC1B9
FFFE2FEA
00007C29
FFFBC996
FFFFD8D1
FFFF662E
00007925
0000A084
FFFFA935
FFFE8681
FFFFFF4E
FFFF0865
00015044
0000B895
FFFD60A9
FFFF5DD1
00018CFA
00001124
FFFF9D1C
FFFFDD31
FFFF1213
00007949
FFFFF701
0001AD0C
FFFF32C8
00015B8A
0000936E
00008A71
00025341
FFFEAD63
FFFF1FFB
000265D9
FFFF451C
000005FE
00005887
00028181
FFFF9D42
0002DDB4
00010319
FFFF826C
FFFDB98C
0000C9B9
000159C6
FFFFBC14
000105BA
FFFEF600
000013EE
FFFEFA5F
0001F80F
FFFDF0EC
00003CC8
FFFF2E02
FFFF3293
FFFF7A2D
FFFE1584
00020AA5
FFFFFAB0
00010846
FFFF2235
FFFCD056
00017BFC
0001061D
00018BCA
FFFF35FF
00005E90
00009FA6
00001597
FFFE7A84
000379B8
FFFF99BA
000022BC
FFFF5231
00002D8E
00002AB3
0000A04B
FFFECA58
00007A32
00000F5A
FFFF4ECC
FFFE849E
FFFFAF97
000004A1
FFFF3928
FFFF8403
00044DF1
FFFFEB6E
00014A0C
0000CE3A
FFFFE2EB
0002F23B
FFFDB8B4
FFFE0456
FFFEBED8
0000D41C
000037C6
FFFF69B4
FFFF85E2
FFFFD5CE
00006E66
00004BA2
00004D6F
FFFEF428
FFFF59A7
FFFFD213
0000B495
00004318
0000C8E9
FFFF88F4
FFFF677E
00008371
00026F2B
000037C9
0000A568
00011679
0003EF87
FFFF3C14
FFFF3DE8
FFFE813F
00013875
FFFE65F1
FFFE11E4
FFFF9ADA
FFFE7AE6
FFFF8851
0000B948
FFFF9DEF
FFFE435A
0001769C
00002571
0000C98E
0003183F
0002A501
000021E0
00041564
00023F8B
000032B0
FFFEA8DA
FFFF9734
FFFF82A9
FFFEB695
00009D38
FFFFC577
0000F9C2
00018D52
000036EA
FFFFE613
FFFE3E6E
00004972
0000B755
FFFF35B2
FFFF7160
FFFF2DF7
00012B29
FFFD08B9
FFFF8EEB
FFFFC100
00019FC1
FFFD028B
00002F5B
00004A03
000207DA
00005AC8
0000E023
00002F25
000126A0
0001DE85
00010883
FFFEB366
FFFED0C1
0001223B
FFFF226E
0000F042
00009E3E
FFFF71DD
00004450
000257EE
0001B57D
FFFF8E3A
FFFE7482
000005A4
FFFDBD47
FFFFAFB8
0001018B
000119FD
0000AE1E
FFFDA21F
FFFF3E05
00022690
FFFEE10D
00005E57
0001AF05
0000A590
FFFEDB9E
0000D792
0002A908
00013D57
FFFE9B05
00031500
00008D53
00005DFC
FFFCC3A8
0001AF3D
FFFE815F
00002723
00005CBC
000186E2
FFFEC55B
0001D379
FFFF6C1D
FFFCEC07
00006B7C
FFFF43E3
000039CF
FFFFA6A7
FFFEA3A0
FFFD2C67
0000D27F
FFFEF6A4
FFFF88DC
FFFDD914
00024D59
FFFEF30F
00001E5E
FFFF1D42
FFFE4915
FFFEC28A
FFFE8864
FFFDB7D5
FFFF21F1
FFFF2F09
FFFF3B63
000075B4
FFFF8477
FFFFE1F5
FFFF30F1
00015BF3
000091A9
FFFFA40C
FFFF2625
FFFEBD75
00005F0D
0003152C
0000C32A
000060CE
FFFFA8A3
FFFF6D6B
00004634
00000273
FFFF6073
000045DA
FFFFBE08
00000BBD
0000C73A
00008160
FFFFBF1D
00007160
000013CA
FFFFA47D
00004CB3
0000CFD2
00009A41
FFFFBF2E
00005F57
000030FD
000234C0
00004C78
FFFECFD5
000062F0
FFFFCB45
00004DDB
00009E89
00002660
00008BF3
FFFF3F82
FFFF43A0
0000674B
00006668
FFFFE61F
FFFF21BF
FFFF63BC
000014AB
FFFF813B
00002599
00014F2C
00000FEC
0000111D
FFFF46DA
0000E0C6
00026D39
0000CCBD
FFFF9C7B
FFFF8DAB
00004317
0000235A
000056DC
FFFF826A
FFFFBFDE
FFFFA48F
FFFFBA1E
0000E606
00009644
0000CB8E
FFFF57A1
0000C295
0000F4D1
000059F2
FFFFD273
FFFFA09E
FFFFD8AC
FFFEB933
00004D99
000066C7
FFFFC73C
FFFFFCC4
000016EC
0000994E
0000968D
000063C7
000049E1
FFFE9537
00012696
FFFFAB18
00001901
FFFFF0C1
0002DA04
00007C79
0000F194
000073BF
0000BE5C
FFFFA42F
FFFFB573
0000A1A2
00012E22
FFFFF91A
0000389A
FFFF657E
FFFFC375
FFFFAEBF
0000E14B
FFFF9617
00002881
0000162E
FFFE1FBE
FFFF7264
FFFFCB5C
FFFF80F8
0000315B
00010656
00011003
FFFFEB36
00003B16
FFFFEC0D
00007F1F
FFFFCFE1
FFFFF3EB
FFFFC7AE
000087AF
FFFE60E8
00008164
0000C097
00007ED9
00012B34
000015EC
00008DF9
FFFE50E7
FFFF4F74
FFFFFB5F
FFFFCC0D
FFFE5A2A
000068B8
0000A153
00003838
00001EE7
FFFFC342
FFFFDD80
000090BF
00009DE8
FFFF09FB
FFFF31D4
FFFF5FF3
0000AF34
000158EF
FFFFAE56
FFFEDF20
0000E889
FFFF0BAD
00002679
00006B3C
FFFFBCB1
00007360
0000287E
0001A409
FFFF187A
FFFEAA8D
00003C5F
00023344
00005678
0002730C
000093C0
FFFF85DD
FFFFDA33
0001189B
FFFEF7E4
0000B818
000055F8
FFFFAABA
FFFF908B
0000FCEC
0000708D
FFFFE07E
0000E17F
FFFFBCA4
00035C75
FFFF47EE
0000E4BB
FFFEE6D5
0000AABE
FFFF6CA1
00001399
FFFF8F68
FFFFC460
FFFF2FFA
00009CC4
FFFFD89C
00010936
0001B3A5
00015507
FFFFA6E4
000079B0
FFFFDC0A
0000439D
00002681
000092F4
0000547B
00003B0C
00006988
0000B744
FFFFED82
FFFEBBF6
FFFFFECB
00000149
00004F4B
00000A4A
00002044
FFFF80BA
FFFFDB74
00006741
FFFFDA32
FFFFD36A
00007A78
FFFF8F66
00002603
0001259F
00003FC8
FFFFA178
0000234D
FFFFFA04
0000F9AF
FFFEE5A0
00006A59
FFFFA5D7
FFFF27AA
0000D59E
0001878E
0000CEF0
00001758
FFFFD448
00006EBA
00017156
0000E94F
FFFFDE7A
FFFFCC5A
00014C66
0000F28A
0000379C
00010791
00007EC2
0000C900
00001FEE
000185D9
000020BE
FFFE7378
FFFF7212
FFFE6B86
FFFFC6B0
000045A8
FFFF8556
FFFF1C59
FFFFF382
FFFFC671
FFFFCDC0
00009EA6
00005F05
0000AB4E
00003FE5
000036DB
0000A1E1
000056C0
000015A6
0000B8B4
000007FB
00014F21
000049A5
FFFEA6E7
0001F9F8
FFFF0FE0
FFFFDB37
FFFF9CCF
FFFFB55B
00001FE9
FFFFE081
FFFF7CD7
0002565A
FFFF7C44
FFFE6A9C
FFFFD2AC
0000B4BB
000013A4
FFFFDF44
00010B74
FFFF4703
0000A81C
FFFF71A6
00002F17
FFFE159F
0000E03F
000014AA
0000A017
FFFED0B8
0000602F
00021376
FFFFDA57
00006A89
0000036D
FFFFEE6A
000119B0
000001F9
0001C829
00001C15
0000D1AB
0001AA97
00007000
FFFEACB8
00009611
00003BAD
0000137D
FFFFC342
0000FC21
00008384
0000C43C
000069F6
000037F5
00001705
0000377C
0000F42E
00004AE2
00008322
000162B8
FFFFC234
FFFF76E1
00006D6A
0000198B
0000A097
FFFFB455
FFFF6D6B
FFFF682B
0001D190
000042FB
FFFFC03A
FFFF9EC8
0001AC2D
0001797B
FFFF46D5
FFFFFEEA
00007348
0000AE5E
000060B1
FFFFF8EF
00009462
FFFFB4EF
FFFFAA59
0000792F
00014D49
00016510
000073C7
000046C6
FFFFFF35
FFFF7232
00008ECB
0000984A
FFFF9928
00007AAA
FFFFDDBF
000005BA
FFFFFF0E
FFFFA8C7
00018D16
000107AE
00005903
FFFFC38E
00007305
0000AAAF
FFFFE73D
0003AF4C
FFFF776A
00003915
00006E9A
FFFFDCD6
00005217
FFFFED94
FFFF6EE4
FFFFE100
00006ECD
00002BAF
0000E299
FFFFCA9F
FFFFA80C
000137A6
0000AC9A
FFFFD8AB
0001600D
000027C4
FFFF8E7F
FFFFA5BF
000022C1
000065E8
0000F66F
000023A0
00009EE7
FFFF6E42
0000CA65
FFFF3B89
0001220D
0000A2CD
000099B2
FFFF8B46
FFFF2067
FFFFE79B
FFFF5B59
FFFFE419
FFFFE62F
00009225
00003814
00007E37
000112DC
00010F8C
FFFF0B0F
0000C72E
FFFF5F74
0000C98B
00003C2C
FFFF97AB
0001048F
0000D908
00000261
FFFFDA2D
FFFFC3FA
000062EA
00009C94
00001542
FFFFA422
FFFF9040
0000D6DA
0000E3FC
FFFFA23F
00007BC1
FFFF3FC0
00006C13
FFFF1B9E
00030B2B
000010BA
00002C75
00005D50
0000720C
00055BE6
FFFFF85B
FFFF34F8
0000B62D
FFFFD423
00003989
0000DB26
00008277
0001A202
FFFFA336
0001A827
FFFFBFBD
FFFFA5CA
0000B987
0000A749
FFFFBA5F
00004933
0000546F
FFFFF0AC
FFFFCA02
00000576
000062FE
00001462
0001BF5C
FFFF03FC
FFFFBC95
FFFEBA93
00009F15
00000143
0000392B
FFFFA0C8
00005479
00008164
FFFF9CF8
FFFFC6B2
00008A5C
FFFF3B99
00003364
00013E5A
FFFF6F0C
FFFFF812
FFFFEC0D
FFFF88BF
0000500E
FFFF681F
00010F31
0000A89F
FFFFBE2B
0000CE50
FFFFF031
00007214
0000546D
000070F4
00002F15
FFFFEC84
FFFFE546
00000ACE
00006B68
000080E2
00005000
FFFF9D26
FFFFF54D
000019F9
0000D4CF
000250C1
000078FC
0001A0E0
FFFFC30A
00001E76
00025658
00019E9F
0000E2A8
00015D7A
FFFFDA39
000041A8
0000BB1C
00011B1B
FFFF5D54
00069365
0000B549
FFFFD2EB
00003AFD
FFFFF886
000039D6
00007239
FFFDD1EC
FFFE6B11
FFFF9362
FFFD6C6E
0003F64E
FFFEEC45
00020DFA
0001DE94
FFFD2CB5
FFFF60AC
00005897
FFFFD52B
FFFCE83A
FFFF13FF
FFFFE5EA
FFFEAC21
00017DBE
FFFEA665
00013828
FFFFB957
000140ED
FFFDA8E7
00034799
FFFF29A8
FFFF8FA4
FFFE27FC
FFFF8E0C
00001F90
0000F669
0000582F
000148A8
FFFF9E6A
FFFFDC1D
FFFE93AC
0000037D
FFFF84FD
FFF9DB98
FFFD2A07
0002D8C9
0000D273
0000B40C
FFFF7505
00038BCC
FFFF48C0
0001267C
FFFFCC89
FFFEE24A
FFFE67DA
00040E57
00005D57
0001ACD3
FFFFB4F1
00001FC6
FFFE5DD3
FFFFF372
00006FFA
FFFE61B7
FFFF8394
FFFF42EA
FFFF6C1B
00012ED1
FFFFFD09
FFFD4DFC
000137ED
FFFF7D87
FFFEF4F2
FFFC1B9D
00028500
0001C189
00008179
FFFCB52C
FFFF5ED3
00021D27
FFFFF409
FFFF9CDE
00003D2A
000396B7
FFFFA78F
FFFE9042
FFFD977A
00012C7A
FFFF294E
FFFF25E4
00026B1D
FFFE1396
FFFF5D80
FFFEC7CE
000104F6
FFFE64A8
0006D851
0000066F
FFFEC456
0001DCFE
FFFF1DD2
FFFEEB75
FFFFD2BE
00002A07
FFFEE669
0003B9A5
FFFE32FA
0000FA91
FFFF5B43
FFFEA855
FFFCFFFE
000002A4
FFFF77DA
FFFF5E0F
00010A71
FFF9E826
FFFFABA2
FFFDDE6C
0000C9D7
FFFFF48E
000144BD
0001F56C
000112DC
FFFF6996
FFFF2964
00004B4F
000124EE
FFFEBA7F
0000EF1F
00008484
FFFF1690
FFFD4B75
0004BD50
0000358F
FFFE3BC3
0000CE1D
00001F1E
000070BB
FFFCF5C3
00069AD5
00005E0D
0000F704
0003ECFD
00000316
00001F40
FFFF485B
FFFE9EEE
0000C3DB
FFFFF999
FFFED8D8
00009139
0000BA5E
0000935B
FFFFDE52
FFFF51DD
FFFBB1AB
000679FE
0000EBF9
FFFEB0B6
FFFD33CC
000059A9
FFFD4AF6
FFFEC108
0000F920
00002EE7
0004952E
000081B9
00011EF3
0002578E
FFFB5737
00014AAE
0000D338
0001D716
FFFFFB58
FFFF6A89
FFFF5316
00041813
00009C0C
FFFFC090
FFFF938F
0000DF64
FFFD178B
FFFF08F6
00048AF6
00006F3E
00013F61
00048B5D
0000282D
000272B3
FFFDBC36
FFFF9ACE
0000657C
FFFF6173
FFFC576F
0001C12A
FFFFDA73
FFFFEECA
0000D3ED
000024F7
0000E362
0000885F
FFFF2BB3
FFFF4452
FFFF5A54
00021818
FFFEF5D6
0000C2BC
0005ED57
FFFF97AB
0000AC28
00003648
00024BAB
FFFF9AD7
0000E1D0
00013D5A
00008CEF
00050FA7
0003F942
000021E7
00005BCD
FFFFBB4D
00000B63
FFFF55F1
FFFFF409
FFFB3659
00026F15
000213BF
FFFD8E36
00038A25
FFFE6B90
FFFF2408
00047EBF
0000182A
FFFA46C2
00006A44
0000F076
FFFE3216
FFFF9088
FFFC56A8
00004990
FFFD5608
FFFD3A21
000203C9
FFFD0713
FFFF17DC
FFFE7519
FFFAC324
0000933C
0001218B
FFFF91B3
FFFFF8B0
FFFF0C3A
00013909
0000C83A
00007114
FFFE9FFD
FFFFCCBB
FFFF4D6B
FFFED628
FFFFA320
0003CFBA
FFFFE328
000015ED
00017221
0001CFBF
000125EA
00007F78
FFFF18E3
0001BE73
FFFFB103
0000F321
FFFE8A88
0003B4E9
FFFF53CB
FFF9B8A0
00001E4B
00026951
FFFDAD40
FFFF9FBD
0001D924
FFFF817F
FFFE7988
00025D9F
FFF65ED8
FFFFF371
00039D6E
00029C7D
0000B242
FFFE5CDF
FFFCAFA1
00011FC9
00007F66
FFFB09C5
FFFE8C73
FFFD062D
00046EDD
FFFFBA8A
FFFE9A50
0000696D
000103EC
00005FD5
00013546
FFFEEE5F
FFFD85C3
0003C6DA
FFFFC784
00056291
FFFEA719
FFFF7939
FFFF1C44
00048734
0000E9D2
00022006
FFFF4091
0001E1D9
0000B603
FFFF1BA2
00001BCB
00007388
0000432B
FFFD2010
FFFD4034
FFFEDBB1
00004571
0002627F
0006BB95
000028EF
00029543
FFFF6AD5
FFFD115E
0001C6BC
00021186
0002960C
FFFF6164
FFFDEB2E
00022CF0
FFFF0B42
FFFD244A
00028339
0000A92C
0000C393
00022C52
0000B3CF
FFFF984B
FFFF44E1
0000AADC
00015698
FFFDD70A
FFFF5F81
00003BA8
00027B8A
FFFFF1B3
FFFF9F56
00008BB2
00020CF3
FFFFC33A
FFFE5737
0005B56E
00009465
FFFA0F27
00001629
FFFF5142
0001E197
FFFDC235
FFFFECE6
00002075
FFFFAA37
000017CD
FFFF8D39
FFFF5C15
00001EFE
FFFAE56B
0001CCC8
000035CE
FFFFB667
FFFCA30A
FFFFE955
FFFEF18B
FFFEBE7C
FFFF875C
FFFEB53C
FFFBE307
00014F50
FFFF538E
FFFEBA99
FFFFBBD6
0000DE3C
000287D9
FFFD7B94
FFFEED82
00006F5C
FFFDEB24
FFFF9760
000266FF
00020F78
FFFF967F
0000AEDC
FFFEBB41
00000FB1
00016575
FFFE385D
FFFE3FD1
0002DF6F
FFFC1CAF
000093B9
0006B337
FFFD2799
FFFEED08
00026463
0000FEE7
FFFF7401
FFFFA785
FFFF09E4
00010D4F
FFFDA7BC
00014286
FFFFC813
00012158
FFFFF869
000479B5
0000A7A3
FFFF7162
FFFECBD8
FFFE9D2F
FFFD7517
FFFFECA3
0000E079
0000B145
FFFDEF93
00009777
FFFC282C
00010A36
FFFE5F29
FFFE9633
0001A65C
FFFFDA7C
FFFF4287
FFFEC8CA
00000037
FFFFF6D9
FFFDCA51
0000B411
0004627A
00036D8A
FFFF5998
FFFF2EE2
FFFE5848
FFFD253A
FFFFE4FC
00020589
00003218
00006900
FFFF2058
00019416
FFFF1C44
FFFD950E
FFFE42DC
FFFD5CA2
0001E5E7
000046FE
0001362D
FFFE99D1
0004F10F
FFFF2404
FFFF7714
00003E53
00001CF4
FFFE78F5
000217B9
FFFF9ECC
00004B22
FFFE2FBB
FFFC0EEF
0001F8A0
FFFFD724
FFFEBF5E
FFF8415F
FFFFE628
FFFEB74B
0001288F
0001112D
0001DF22
FFFF3F96
00004A33
FFFFC865
00007EEF
FFFD99D4
FFFE548A
00028244
FFFC82A5
FFFD8694
00046221
FFFE27E9
000156B5
00006A42
FFFE2521
FFFFD6D1
000190C8
00003FFF
0000163F
0000C141
0003DBB7
FFFECFBF
00034DF3
FFFF8FBB
0001C11E
FFFFBEDF
00007FED
FFFF28F5
0002CD02
FFFFE99D
00002A31
FFFCF884
00002A8C
000298F8
000188AD
FFF8AA4F
0003FF9E
0000F8E5
FFFE3138
FFFD300A
FFFE089D
FFFDC668
FFFF71D9
FFFF4CEF
000019BE
FFFD99F8
FFFFEFAD
0003C5D7
FFFFBC08
FFFEF2DD
FFFBF92A
FFFC86B0
FFFD646E
FFFCBE9D
FFFED0DD
0001ACF1
FFFEC75F
00023FA9
FFFE0AA1
FFFC7FDC
FFFEC2A0
FFFFEB8F
FFFF8FEB
00013E77
FFFD8139
FFFF60AD
0001AEDE
FFFF60DA
FFFEC92D
00025AFF
FFFE5AC4
00007838
FFFE335A
FFFC6C58
0000B502
FFFE9CBF
FFFD71FE
FFFF8185
00002051
0000BCE3
FFFCA5BA
0000A833
FFFF896A
FFFF266F
FFFD1729
FFFF937D
FFFF31C3
FFFD2686
0002DBD4
00037C95
FFFC1D0A
FFFF20F1
000135B1
FFFF4F4A
00003B43
0001709F
000010E7
FFFFC5A4
00001DAF
00050F28
00005AFD
FFFD58F2
FFFFE648
FFFFC46B
0000ECEB
FFFCAC54
0001860F
FFFD1161
FFFDFABB
FFFFA802
FFFA8953
FFFECDDC
FFFEC938
FFFEBB80
0000C966
00017D93
FFFD9784
FFFEF08C
FFFDF752
FFFE28E9
0001BD33
FFFF39A0
FFFE56FA
00036800
FFFDA81E
FFFE2254
FFFDC836
FFFF9DD2
00015AE1
FFFE6555
0002222D
0000AC1C
FFFEABC4
0000C62C
FFFFFC67
FFFD1F88
00073B3A
FFFD50A2
00008354
FFFCFF1D
0000D6C2
FFFE4330
FFFE8549
FFFC2284
FFFF8F6F
0005F377
00014431
FFFE3521
00009F68
0000E325
00009DDE
FFFF04A0
0000725C
FFFDB465
FFFE8D33
FFFEC062
FFFF95E3
FFFFE32A
FFFE5780
00025D70
FFFEC39C
000018C8
000174FA
FFFCA7FA
0001330D
FFFF038E
FFFE3F33
0000CC83
FFFF662E
000129E4
FFFF7848
FFFBEBA3
FFFF6AEF
000079ED
FFFF9A32
FFFEDAD7
FFFD416D
FFFE33BC
FFFE209D
FFFC7B4A
FFFFBC3D
FFFFEA6D
000080C3
00001DD0
00000DFB
FFFFC9E9
0003BC56
00014ABB
FFFF666D
FFFF2248
FFFE8AEB
0000BF47
000014F8
FFFEB2E9
FFFDAC4E
00004A14
FFFFEA88
FFFDD18C
0000BB8A
000170FE
0000273D
0001EE43
FFFE6C94
0000E481
00001B07
FFFEF664
FFFF96A3
FFFFBFB5
FFFD5A56
FFFAE885
00014F49
FFFD37E4
0001C848
0000D9CA
0000C525
00002394
FFFE1AA6
FFFAE6B6
FFFDC502
FFFE26AB
00024903
0000A622
FFFDF496
FFFE843A
FFFEE629
0000DA60
FFFC7C74
FFFECFAF
FFFF1151
FFFE0732
000162FD
0001F766
FFFDA4C6
FFFBE9DE
FFFFE3FC
FFFFE066
00005F07
FFFF2D0A
0000A2BC
FFFF09D6
FFFD6234
FFFE3A26
0000945E
FFFD6EE0
FFFEF7BE
0000DD48
00004E53
FFFF9F6D
FFFFD86B
FFFBC2EC
FFFB9EB5
00006982
FFFD41DA
FFFFC092
00001DF5
00005CD3
FFFF0CE3
FFFE4071
FFFFB565
0000E799
000090C1
FFFD63F0
FFFE3BD0
FFFF1B47
FFFF2AFC
0000530E
FFFE870C
0000A593
00003BFC
FFFFC49F
0000174D
FFFCA760
FFFE4EEF
00036B2A
0000808B
FFFE2CEA
FFFE8386
0000B653
FFFD998A
0000EFD0
FFFE7F0F
0001CB27
00017FB4
FFFDF457
FFFF1792
FFFF5D36
00010CDD
FFFED5D8
0000C3C3
FFFFDC32
FFFCE704
FFFDFB3F
FFFD2882
000043EB
0000CEA7
FFFF6A59
FFFE760E
FFFD4842
FFFF36EF
000094B1
FFFF36C1
00005B16
FFFB00E9
0005C7E4
FFFFCDA2
FFFF75F0
00005691
FFFD54D9
FFFF95A5
FFFE8BAA
FFFD796E
FFFFAAB0
00002636
00002962
FFFDEF14
FFFEC583
FFFE70CF
FFFF4258
000164E5
FFFE8443
FFFFDDF7
FFFF1F4A
00031A61
FFFD73CC
FFFF1792
FFFF817D
FFFC8C33
FFFFBBC0
C0000040
FFFE8593
FFFE2A25
00035BC0
FFFC84C0
00020A8E
FFFF5068
000052DC
FFFF8FFA
00007156
FFFEC456
00011631
0000BA98
FFFC72F7
FFFF78E1
FFFD155B
00000345
FFFE509A
000354E7
FFFF1DAE
0002339F
00013FFB
FFFF009E
0001B6F1
FFFC1303
FFFEF3C0
FFFEC812
FFFDF1FD
0000FA8C
FFFE19D6
0000AA60
FFFE83D2
FFFF3DB8
FFFF604A
FFFDF3B9
FFFE07A8
FFFD57ED
FFFF77A6
0000A7A6
FFFD832B
FFFEA412
FFFF0150
FFFFE4C1
FFFF8C95
0000B7FA
00008DA7
FFFFC493
0001C36B
FFFDDF5F
000049D6
FFFFD11C
FFFF512E
0000B9F8
0000EBD3
00008EC8
00000C08
0002AEE1
0000FD3A
FFFF39D9
00037359
FFFD3855
0000DFDF
FFFE4481
FFFC03AC
00007168
FFFD668F
FFFFB353
0000E4F8
FFFC2CD1
FFFD3916
FFFE44C3
FFFCE4CA
FFFCC7E0
0001DEA3
FFFC924C
000169E3
00005402
FFFD1A71
FFFDBBBC
00005F5F
FFFCE34E
000027ED
FFFD04F4
00006342
FFFFF638
FFFDACBD
FFFDE6CF
FFFDD5CB
FFFF502A
FFFD051C
0001B2F4
0000E768
FFFB864A
FFFE95E5
0000C0CC
FFFDB27A
FFFE2E34
00005693
00011AFA
FFFDF45B
00017E22
FFFFDC3D
FFFE77D1
FFFE1BA6
FFFF8A79
FFFF0D52
FFFD641A
FFFE8FFA
FFFCC45D
FFFE0C4C
0000D158
FFFEF2BD
00001E36
FFFEEB6B
00000D2A
FFFFC1E4
0000DA5F
FFFC9738
FFFDEB49
FFFF68C7
000235E9
0000F77A
00010487
FFFE6548
FFFFE3CE
000361A7
000135BF
FFFB0736
000372DA
FFFF19EB
0004E1EF
FFFF512D
00010451
FFFE1096
FFFD6444
0000D4E1
FFFFCACB
00020F5D
FFFED290
0000F38A
FFFF098C
00006044
FFFF70A2
00018F1D
FFFF7C5B
FFFE50CF
FFFC09A6
FFFF1603
FFFE4BB5
FFFE19E1
000373C3
FFFFDDE0
FFFAC8B5
FFFE3760
00011CC9
FFFE6A77
FFFD0482
FFFC7FC4
000022DD
00025B94
00015B2E
0000DC99
0003E77E
FFFE97CC
0000320A
00003CCA
FFFFF0A8
0000387A
0000F6D5
0003DFB6
FFFD95DF
FFFEA682
FFFD21C3
000225CF
FFFF19B0
FFFD1799
FFFE5796
FFFEF6DF
00005D15
FFFC52CF
0000C800
FFFDBBA4
FFFECDBE
00001104
000250E4
FFFD5A39
FFFDF950
FFFE38C1
FFFE277B
FFFF862B
FFFEB387
00007BEF
FFFC5BC4
FFFDCA04
FFF9A54B
FFFFE42D
FFFD8574
FFFF243F
00006CA0
00006E12
0003A114
00001C04
FFFBA1DF
FFFE74AF
FFFED1D0
FFFEC799
FFFF06C3
FFFD3421
00016460
FFFE3837
0004EFF5
000225EB
0002311B
00001845
FFFECDDB
FFFFB05A
FFFF2C82
0000A5A3
00002799
FFFF9AA4
0000CDEC
FFFE20A7
0000C1B3
00011B83
FFFD64FC
FFFD11B9
FFFCB300
00006351
00009DDA
FFFF8F62
00016B01
FFFE2F04
0001ABD0
FFFF11ED
FFFDA6EB
FFFE2755
0000098A
FFFD914D
0000425A
FFFFC461
00003C9A
FFFEED87
FFFF9877
0000891D
FFFF29E5
000110F0
FFF8FEED
FFFF3C19
0000FD1E
FFFCC171
FFFB783E
FFFC8EE3
000097F5
FFFF442E
FFFE203B
FFFF1244
FFFFC96F
0000E6E4
FFFE7E7C
0000B17B
0000E44A
0001BEF2
FFFDF1BF
000274BC
FFFFCC38
FFFF9C8B
FFFF1E9A
000031AE
FFFF3458
FFFEB85A
0000BFA1
FFFF36CF
FFFF262E
0000A0AC
FFFDC360
FFFDC43D
FFFE6D6A
FFFF9CA4
FFFF0792
FFFECE4E
FFFE73BA
000025BC
FFFEBF14
FFFD9867
FFFDD4C1
FFFCA7E8
FFFBB931
FFFFFD87
FFFF710B
FFFF9434
FFFD7CA8
FFFF6619
FFFFC3D8
FFFC55B6
FFFF9E03
FFFF2D8D
00000B96
00026430
FFFD75F3
FFFE6F25
000074E7
FFFF14AD
FFFEF731
FFFFBFA8
FFFDF0E0
FFFD4080
FFFE6F77
FFFF2349
0001C199
FFFFCFBB
0000A2E6
000147FB
FFFF6C1A
00043D8B
FFFE2398
FFFF8A68
FFFC0EAD
000081CE
0001CF04
FFFF049D
FFFB5FC7
FFFF322D
FFFCC9F7
000169F6
0000F4F3
FFFDF5B1
00019B9B
FFFEE2B0
FFFE4C91
FFFE6E37
FFFB577D
000306BF
FFFF332C
FFFFE193
FFFF1EFF
FFFD725C
FFFF3CDE
C0000080
FFFC0CF5
FFFFCAB5
FFFF27AE
FFFDFABC
FFFE4800
FFFF6873
FFFEAA53
FFFE9FCE
FFFF7BAE
FFFF4511
FFFDA26D
FFFF4014
FFFFB15C
FFFD17F8
FFFE0641
00001DAB
FFFE82A3
00020E0E
00016836
FFFF0316
FFFC6455
FFFCFB9B
FFFF9C89
00003DA6
FFFF1CDB
FFFFB249
FFFF1C67
00013CA7
FFFF3AF0
FFFE0E87
FFFEA56B
0005757D
000049DD
FFFF747D
00009083
FFFFDC07
0001093A
00001072
00022E10
FFFB6A10
00016AF4
00017FB9
FFFFCB12
FFFFB3BD
FFFFB41C
FFFD6D55
FFFDE52F
FFFC4A33
FFFF0448
FFFD48A5
0000C225
FFFF0F97
00003C99
FFFF6317
FFFF8C18
000079C1
FFFE116F
FFFFED51
0000CAA2
FFFD46D0
FFFFF95A
FFFF5F7C
FFFEBC26
000035C6
000576D5
FFFF9923
0000FD8B
FFFFE50C
00003251
FFFE7708
FFFFB85B
FFFE3750
FFFD9621
00001E84
FFFF9B68
00016278
FFFE01DF
00014F87
0000756A
FFF9941C
000057EB
FFFF8F00
FFFF7CDE
000068EE
FFFFBF43
00019860
00026912
FFFF67AC
00003E2B
FFFE327D
FFFE8100
FFFEC215
FFFE36F7
00010170
FFFFCF83
000065BE
0000D8A4
FFFFFD61
FFFEB8D4
FFFE82CA
FFFEB922
00005341
0001B29B
00007524
FFFCF2A2
FFFDD735
FFFFD04F
0001305C
FFFE5DE5
FFFC8664
FFFE16BB
FFFE9C1A
FFFDD1E8
000295DB
0000FFD0
00005564
0001980F
FFFF5FC5
FFFD595C
FFFDC0C1
0000BBD1
00012103
FFFFED60
FFFEEC95
00008E6A
0000AB43
0000D072
FFFF674F
00005AD3
00000D00
FFFDD603
FFFCCDB7
0001F257
FFFF2FBC
FFFFBA15
FFFF1143
FFFFD6F6
FFFEDEB4
0000EF78
FFFE10FB
FFFF87FA
FFFDF5C3
FFFE1BC2
FFFD9888
FFFD7F5C
FFFD221F
FFFEF1F0
FFFDE7FA
00021094
00007E53
FFFFF53E
000099B3
00000B25
FFFE9E51
FFFE147E
0001EDC2
FFFE48D6
FFFFE56B
FFFFE410
FFFF388D
0000EA68
FFFF50FA
FFFDB326
FFFFBA14
FFFE1810
FFFCD1BA
FFFF3ADC
FFFD1182
0001E8C1
FFFE6756
0001E808
FFFD6A8C
FFFF5571
00010B06
FFFE9484
FFFFFC0E
FFFFD4A8
FFFE18A2
000101FF
FFFE499B
0001E900
FFFF398A
FFFDD107
FFFEE930
00001529
FFFF290F
FFFC436F
FFFF81AE
FFFD28A7
0001439B
FFFE1225
000084C6
FFFE3691
FFFE6C44
FFFF7743
FFFFAA4E
00004961
00033546
FFFF0586
000000CC
FFFFA773
00005C7F
FFFFAD55
000061FF
FFFF2CAC
0001C1DE
FFFE004D
0000D723
FFFFFC7C
FFFDE3A5
0002EF05
FFFD6D85
0000A445
0001986A
0000A703
FFFFA6C2
00002F16
FFFE9DB8
FFFF23A1
FFFE8206
FFFEAF21
00017609
000249C5
FFFFF350
FFFD3C6B
FFFFDBA9
000344AF
FFFFAF9A
FFFD89A7
FFFEA158
FFFD2999
FFFD71A0
0001A9DC
FFFDBFC7
FFFF8C2D
FFFEB030
FFFF10D4
FFFF5B1E
FFFFE888
FFFF6E73
0000154B
00026C40
00015D2B
FFFDDD8C
FFFEA64F
0000168A
FFFFACFC
000108F1
FFFF1485
FFFF3442
FFFFF61E
FFFEA4C2
FFFE2118
000097E8
FFFCDA00
FFFD1EA2
0001120F
00005969
FFFC8139
FFFE6F7A
FFFFB715
FFFCE9FF
FFFE6C9C
FFFF01A9
FFFBAB09
FFFFE630
0000139C
0000AE3A
FFFE58B3
FFFEA9B4
FFFFF6C9
FFFD324F
FFFE14D8
0000FBEA
FFFD913E
0000518D
00037896
00029FA7
FFFF76D8
FFFEC443
0000049D
FFFEA4FD
FFFEE297
000014BE
FFFE5FC3
FFFEAD56
FFFF1BF8
0000E240
0001C585
FFFF05A3
FFFEF7F5
FFFEC9F5
FFFE85C9
FFFD4137
00022092
FFFEE0EC
0000D557
0000F242
FFFED039
FFFF4192
FFFD6CA4
00053218
FFFC0438
FFFCD296
FFFEC830
FFFF5993
00039DDE
FFFDA14D
FFFF85BF
FFFFD0D1
000021BC
00005FD2
0000FA2D
FFFFE748
0001F58E
FFFF3C1B
FFFEED8E
00000C59
000035F8
FFFDFC4E
FFFF4A30
FFFFBE4A
00016A86
FFFD73B9
FFFE4805
FFFF24EB
FFFD5D96
FFFEB59C
0000D1D5
FFFDBB8A
FFFD99ED
FFFFD2A8
000111C6
FFFFE393
FFFA2C4B
00043C68
0000DFCA
FFFF522C
FFFE2956
00004F49
FFFE062B
FFFFF5C3
0001D8AA
FFFFA84C
FFFD7989
FFFF10AB
00034A91
0001335C
0000B258
FFFE4B0B
FFFDFF3F
00006A46
FFFF849B
FFFF97C8
FFFED863
FFFF149B
FFFC815D
FFFD5EBA
0000248F
00001AE7
00026600
0000D460
0000D598
FFFDA657
FFFEF847
00017F4A
00007D0D
00012539
FFFF7DFB
FFFFAB40
FFFEDA66
FFFFD977
FFFEA017
000109DC
00010D30
FFFF498B
0001CAAF
FFFFD44A
FFFE4B93
0000EC76
FFFE22D8
FFFEE04D
00004F23
00016ABB
00005AE5
FFFFA56E
FFFC9F20
FFFC819C
FFFFF2D4
FFFBE60B
FFFE25F1
FFFFF171
FFFE7A8D
0000A342
FFFF43A9
0000489F
FFFFCC5E
FFFE5F99
FFFD85A8
0000F8EE
000020DA
00004AB3
FFFF7219
FFFEC956
0000DF62
0000426F
FFFFEF38
FFFBE19E
FFFE8E25
FFFD7256
00005426
000030C3
0002E5C0
FFFD80AB
FFFC2821
00015C99
0000BC07
FFFC9938
FFFDCE61
FFFD5926
FFFC710E
FFFF8C47
FFFD4A83
FFFFFF91
FFFFFBD8
FFFE0C6E
FFFEFE37
000083D4
00020B7D
000077B1
FFFEC7C1
FFFEF1CC
FFFE3B2E
FFFE8B38
FFFEEFCD
FFFD5191
FFFEB451
FFFF4935
FFFE23C4
FFFF1741
000152CC
00004A90
FFFF76A9
FFFF9733
FFFE1F5B
FFFE2383
FFFD6836
FFFE7685
FFFF0B7C
FFFEB981
00019942
0000BEC2
FFFE2EE7
00012D9D
FFFD6B3C
FFFF3429
FFFFDC56
FFFDE522
0006DAD1
0000DD28
0000ACEF
FFFEDAA4
FFFD760A
FFFF1ABF
000026FE
FFFFD206
00018F9C
0001CA78
FFFE8596
FFFEE418
FFFED3C0
FFFF80EE
FFFB3DB8
0002FD54
FFFEF3B9
FFFFC583
0000EDDA
FFFE707A
00016090
FFFE67B8
0001EE5F
000173F2
0000103B
FFFFE7D8
00001E7D
FFFEA18E
00005B97
FFFE34F2
FFFF658D
FFFD4E67
00001B52
FFFF706C
00005EFE
FFFCE728
FFFF01A0
0002D58D
FFFBBBCD
00006A7B
00001910
FFFF86CB
00005CBD
FFFEA7B5
FFFFA579
FFFF6BBF
FFFF8344
000120D3
FFFEFFAB
00031137
0000E0B5
FFFFB041
FFFE4FB7
FFFDEF89
FFFF08AE
0002B506
FFFFEA88
FFFEAC16
FFFA15DA
0000BB60
FFFFB633
FFFE739A
FFFEFC8B
FFFF69C8
FFFE7501
0000C798
00023747
FFFE030F
0000B8ED
0002950D
00015C5C
FFFEBC41
FFFCA1CF
0000C967
FFFEC653
000048F4
FFFED440
00017B46
FFFFA758
FFFEAC4F
FFFDE58D
FFFE4D51
FFFE150E
FFFD9375
FFFECA0E
FFFCADA6
00003A76
0002C9BE
00005CF9
0000E906
FFFCD7E7
FFFE6C87
FFFE11D7
FFFF572C
FFFD2CED
FFFF74AE
00006CCB
FFFF71E2
FFFED726
00013594
000008EC
0000ECAD
FFFDAAE3
FFFB2B50
00007E4F
0000D28C
000536F0
00014F37
FFFDB0AE
FFFF48B0
FFFC8566
0000929D
FFFF233D
FFFE741E
00008D4A
FFFE87D4
FFFD09D3
000059A5
00017669
00004E64
FFFFCB1A
00003A80
FFFE71ED
FFFF688A
FFFF1961
000421F1
000010F9
0000189D
FFFF33D4
FFFD9A01
FFFFF393
0000498D
FFFD3057
FFFB84AB
FFFFAFE0
FFFD0726
000082D8
FFFDB5F2
000074FB
FFFDC221
FFFE4462
FFFF9956
FFFEA35F
FFFFABD4
FFFFC685
FFFF05E9
FFFFCEE6
FFFEAB5D
FFFC17CF
FFFD3E80
FFFF56BE
FFFD7A78
FFFF5819
FFFEB9BE
FFFF298B
000252FD
0000072E
FFFF494B
0000BD0B
00023EB8
FFFE3DAC
FFFF6DFE
FFFF7D17
FFFFC333
FFFFD984
00003FDF
000050D5
00006731
FFFFA77D
000038D1
FFFB7A5E
FFFF7160
FFFEF024
FFFE705E
0000FDAF
0002FB7E
0002775F
FFFE5C0A
00013104
FFFF5D4E
FFFFA717
FFFE791B
FFFBAF00
00023939
FFFC5D88
0000AB7F
000106CB
0000DEE1
0000246F
FFFEB978
00005C31
FFFFD9DA
FFFDCD07
0000883C
00011CC5
00013798
FFFF53A4
00011A66
FFFDCCC2
FFFCED66
00009E94
FFFD7DA0
0000B3B9
00007F04
FFFDD52B
FFFFC5C7
0001D6D0
FFFF53CF
FFFD2E68
0000F8A1
FFFF277C
000011F9
FFFE1507
FFFEF3D9
FFFE6C11
FFFD8F7D
000002B5
FFFE03F9
00007DDA
00003BFC
FFFBAADE
FFFD73B4
FFFFE69E
FFFFFBCD
FFFE5E27
FFFECC21
00001692
FFFCFFDB
FFFE3B6E
FFFA71B8
FFFE2918
FFFEA5AF
FFFE0A1E
000205EC
FFFE319E
FFFE251A
00018A14
FFFD79E5
FFFE4039
FFFF42AD
FFFF2280
00054140
FFFE190A
00000DBE
FFFF2E06
FFFE55D7
FFFFA46B
FFFF9641
00003B40
FFFE48C9
00010897
FFFD4E65
00012A77
FFFF708C
FFFF5668
FFFF1A7C
FFFF30EA
FFFCAA0B
FFFA8C16
FFFED891
FFFE7349
FFFF79B8
000015B2
FFFE50D6
00014863
FFFE8B83
FFFD8FBC
FFFE3A07
000043BE
FFFDEA96
00004E21
00021332
FFFFA2F0
FFFCE6A3
FFFE2E4B
000023BF
FFFF2479
00010634
FFFEF3F7
FFFEF302
FFFF8527
FFFD9765
00005254
000129CD
0001365D
0000459F
FFFDEC60
FFFFB7CA
FFFDD488
FFFD7ABB
FFFEE40E
FFFFA842
FFFEA43D
FFFC050C
FFFE82F7
FFFF2FFF
FFFF7E4A
FFFF9CBE
FFFF8EF5
FFFF0877
0000623F
FFFE4958
00008956
FFFE20E4
FFFE752C
FFFF3B9D
FFFF301C
000091DB
000027F8
FFFEF3DB
FFFFC2BD
FFFF6C6E
00009F69
FFFE77E8
000062A7
FFFD3C64
FFFEBBCB
FFFEAE4F
00006FDD
FFFECF03
0000C64A
FFFE6483
FFFDD775
00000E6E
FFFF876B
FFFFB2A7
0002CAED
FFFAFBD4
FFFD9AC8
00005AC8
FFFF0BC7
00000772
FFFFA674
FFFF5D05
FFFEBB7C
FFFF36A7
FFFEFCC3
0001DA60
00020963
FFFFE52A
FFFF0506
000328E9
0000C7D0
FFFD6E15
FFFE5012
FFFF4F92
FFFF3B5A
FFFE5F92
FFFA822B
FFFE185A
FFFFD99F
0001D6B9
FFFFD217
00004359
00000440
FFFE9120
FFFCBF21
FFFFE12A
FFFF889D
0001055A
00007332
0000285A
FFFE5A8C
00006FD8
FFFC870B
FFFFF640
FFFED83A
FFFF0D1A
FFFE325F
00000705
FFFF0CFA
FFFEF986
FFFF85DB
FFFD8B10
FFFFDEE3
000036BD
FFFF8ADF
FFFD6B21
FFFE8174
00007470
FFFD683C
FFFF2DF2
FFFE395B
FFFCCBB0
FFFE4207
00002D1F
FFFF83B3
FFFE2BE8
FFFD5225
00002F63
FFFF02D4
00006CF6
FFFFDA52
000139E5
FFFCB305
FFFED414
FFFFB05D
000037FB
FFFFEE3E
FFFF0024
FFFF83A7
00007441
FFFEA42F
00018293
FFFEABB8
FFFC9734
FFFE265B
FFFDFB71
FFFDFC94
00022415
FFFDC3F2
0000CB04
00013A40
FFFD5BF6
000346B0
FFFC7861
FFFF952C
FFFF35E9
FFFF9CAC
FFFF9CFD
000247DA
FFFEF4AE
FFFDCCB2
FFFF380A
000023EF
0000689E
FFFEC03A
0002F15B
FFFEE421
FFFF5B6F
00024F66
FFFE0635
000069A7
FFFF1488
0001312D
FFFD4FAA
FFFDABFB
FFFE0BA4
00003E1B
00003776
FFFF2B2D
FFFE56AD
FFFF3239
0003AA6B
00023BC3
FFFE3EE9
00007085
FFFE6294
FFFE7E85
FFFE6738
FFFCCF32
FFFE9F6A
FFFDFD7C
FFFEA044
FFFD22DA
FFFCF655
FFFE5DEB
00000537
00018418
FFFF0B56
FFFE3C07
FFFF5555
FFFFD8D6
FFFFD2EE
FFFEA1E3
0003D75D
FFFFEDA1
FFFE8F7B
0002DB85
FFFC4658
FFFD6F28
FFFF0F96
FFFF0F14
0000A1F1
FFFECEB1
00058709
00003670
FFFB92F3
000064A5
FFFE6E15
00005E1F
FFFED85F
00002CF5
FFFF28F0
FFFC8360
00039E12
00007829
FFFEDD03
FFFF9F7C
FFFEC949
00011791
000332C3
FFFD924C
0002E586
FFFF555C
FFFF3CE2
FFFF3574
000088E6
FFFFEE1A
FFFE2ECD
00001444
FFFE129B
FFFDDDB8
00004B37
FFFFE206
FFFDF3E5
00010AD8
FFFE167E
FFFF3472
FFFF584E
00002D68
00013AD8
0002C435
0000758B
00024B1A
FFFDDEEF
FFFF2A81
FFFF09E6
FFFE7969
FFFF0E6B
FFFDEC58
FFFF7163
FFFEBC39
FFFDC197
FFFF60C6
FFFDAAB4
FFFEC87B
FFFDD2EA
0002905A
00034861
FFFE06D2
FFFD1A9B
FFFF9372
000160B8
FFFF5720
FFFF10D8
0003F568
000059A6
FFFEB3B9
00007322
0000E4AC
FFFFB694
FFFD68DE
FFFE2E18
FFFE64E3
00041E12
0000B3A3
FFFFDEDB
0002B0C2
FFFED151
FFFDBECD
FFFF278C
FFFD6C92
0001BBF2
000379FF
FFFFE91B
00004C1D
0000199E
FFFF9A91
FFFFA1AB
FFFEB7EE
00007276
0002F07A
FFFDE0A4
FFFEEB6E
FFFFED70
FFFEA87E
000000F6
FFFDC5B4
000111DB
0002E440
FFFF4CC6
0003075A
FFFDD0D2
FFFE86CB
FFFD2582
FFFDE26E
FFFCF8A6
0003BF00
FFFED81A
FFFFF3EF
FFFD09B0
00004C6B
FFFFB681
FFFE5178
FFFF522A
FFFEC140
FFFBF9C7
FFFFAC5A
00035FA2
FFFFB32A
FFFFA0B5
FFFF8454
FFFCFCC3
FFFF3C78
FFFF9E5B
FFFFE332
FFFE1672
FFFF6F0F
FFFEA493
FFFFCC9C
00052D49
FFFD6751
FFFFAC62
FFFE325F
FFFE89DF
FFFF3384
FFFE43D2
00002404
00027167
00033CD5
0002B22B
FFFE125E
FFFF5237
FFFEE59F
00000EB4
000002C0
FFFD6DF5
00017461
FFFC1656
000067C8
00003708
FFFE3E10
FFFF1B67
FFFE93BA
FFFCBF61
FFFFC423
FFFF6C47
FFFF03DA
FFFEB042
FFFE64F2
0000245F
FFFE145F
FFFE89A4
FFFFDE9F
00026371
FFFD7756
FFFDEE82
FFFF477E
000090DF
0002E3E3
FFFF9840
00022363
00008B3C
FFFEDC96
FFFE8D71
FFFF1836
FFFDECCC
00003E6F
00007C93
0001B1CF
FFFF413A
FFFF81E7
00031665
00025033
00000F3B
FFFFBAAB
FFFF023F
FFFFBCFD
FFFF2568
FFFDA368
FFFE8E9D
FFFDE475
FFFB8181
FFFE1157
FFFDF3C2
FFFF8CE8
FFFDED2A
FFFEBE4A
000008E7
00018C94
000002A5
FFFD356B
FFFE9DDE
00009392
00012F46
FFFDE540
FFFC0269
00008504
FFFFB32E
FFFFBC4C
FFFFB585
FFFE9337
FFFE3A01
FFFD2A9E
FFFF049D
FFFF044C
00059659
FFFFB4A8
FFFC7C4E
0000D970
FFFE52E6
FFFF288D
FFFFC474
FFFFA828
FFFE594F
FFFD0BD6
FFFEE154
FFFF9558
FFFEF220
FFFE5DD7
FFFE7DEB
FFFEF141
FFFF6EEE
0001B54F
00000760
00003D13
FFFF4FCA
FFFF91DF
FFFEC0A7
0000101D
FFFEC75A
FFFD2D5D
FFFE9481
FFFEA73C
FFFFCCF1
000059BF
FFFFC4F7
FFFE2821
FFFF3EA2
00001C57
FFFF5007
FFFF1A31
0001CCE6
FFFD4B1C
FFFFF417
FFFF8240
0000400A
0000BEAA
FFFEF640
FFFE1FFD
FFFD852E
FFFF8A45
0000ECD0
FFFE0963
00007C43
000075D1
0003A1C6
0000B77A
FFFFB56C
FFFFCE07
00033B68
FFFEC3AA
000385C2
FFFF4AF3
FFFE82DE
FFFF18C3
FFFF62A5
0000BD1D
FFFC7536
FFFBF82E
000048EE
FFFF076D
FFFE8F2A
0000FB66
FFFD892B
FFFEACEC
0000143A
FFFFEA75
FFFEB8A9
FFFEA6DC
FFFFC384
FFFE12FA
FFFEA542
FFFF93A8
000043AA
FFFEBF28
FFFE9704
FFFFF0A9
FFFE9B6E
00023F8E
FFFF2131
FFFF3309
000286C3
FFFFD5FB
0003A1D5
FFFD07D2
00006406
0000131D
FFFE080B
000342C3
FFFFAC9F
0001EB5A
FFFF897C
000039B2
FFFFCA28
FFFF7C4C
FFFFF67D
00011D25
FFFEAC19
00018CE9
000021D1
0000D5F3
FFFE97A5
FFFF0268
0002D84E
00007D94
FFFE7E66
FFFE6F8F
00011E82
0001D190
FFFFBF37
00005C0C
FFFFEA6E
FFFEFD3F
FFFED450
FFFD09E3
FFFD3BED
FFFECCF3
FFFDEB40
FFFF777C
FFFF1309
FFFFDF34
00024DEF
FFFECEE4
FFFF1305
00016B45
FFFD57CD
000035C6
000542B2
FFFFE73C
FFFE8106
FFFFE85C
0003967A
FFFF9DB0
FFFF6EC7
00015DA8
FFFE7197
FFFE9422
FFFBED7C
FFFEA01C
FFFEE009
00020CCA
FFFDD69D
FFFF27CD
FFFFD278
FFFE9747
00000AC2
FFFEDDDE
00010C5E
FFFE9E64
FFFFB866
000107A1
0000468D
FFFEAF24
FFFE780A
FFFF034C
FFFE59F0
FFFEC6D3
FFFDF47E
FFFE082B
FFFDA582
FFFFABD2
0002BDEC
FFFDE067
FFFF0D07
FFFF1016
FFFE9E84
FFFE512F
0001263A
FFFEABA1
FFFEF920
FFFE763D
00012815
FFFF2A40
FFFFCC8E
FFFEA801
00017159
FFFE3DF3
FFFF3C6D
FFFFF558
FFFFA103
00042DA1
000195E8
FFFF2A01
FFFFDB70
FFFDC0E2
0001BC00
FFFEE6A5
00028891
FFFDD638
000338A2
FFFD2D69
000195FF
00023E7F
FFFE2383
FFFD9F1A
000169D9
FFFF8F67
00003CF7
FFFEEBD8
FFFEADC9
FFFEBB5B
FFFE89C5
FFFFEA46
FFFF555F
FFFE65B8
FFFE9614
FFFF3967
FFFF3712
FFFD58A7
FFFFBFCF
FFFF0190
00013547
FFFEFB0B
FFFE288B
00003769
FFFCC535
FFFFDCAE
FFFE5442
FFFFCD91
00001DE6
00005F50
FFFE236A
0000D6E6
FFFFA67F
000092A4
FFFCFB9C
FFFE2331
FFFE0E81
00028906
FFFF1583
FFFFC7C7
FFFF2A09
FFFFC4B5
FFFDD889
00001885
FFFED0EE
00006298
FFFF0C71
FFFEFDFF
FFFE3111
00005138
FFFDA791
FFFDBB5C
FFFE4C72
0000824A
FFFD2CFD
FFFFBEC9
FFFF9AF6
FFFFD2DF
FFFE7CA1
FFFF4AC6
FFFDD3B6
FFFFA186
000029C1
FFFFE418
FFFFEA2E
FFFFFEE3
FFFE3B3A
FFFEA32D
FFFF3DBE
FFFF70B2
FFFF3AB7
FFFE7A94
0001AEEF
FFFF587C
00021E9A
00028ABE
FFFF48CE
000001F3
FFFE32BF
FFFDEE59
00008FD8
FFFECED7
FFFDD33C
FFFF47D6
0004751A
FFFED435
FFFF0928
FFFFA706
FFFE047D
FFFDC11D
FFFEFCED
FFFD7457
FFFF907B
FFFD7918
FFFE74B7
FFFF7610
FFFD2C5F
000174C3
00022F12
FFFFD943
FFFF4FD0
FFFDC1D2
FFFDCA2A
FFFEBDB6
FFFF4964
FFFE54DB
FFFDA9F2
FFFE084F
FFFD98BF
FFFE55AD
FFFEA381
FFFE3B22
FFFF85C9
0000845B
FFFE49DD
FFFF1096
FFFE55D3
FFFD421D
FFFEF6BD
FFFE7F82
00001E09
FFFE6B4E
FFFD1B84
FFFF161D
FFFEB1E5
FFFF3B8E
00004A38
FFFDDF33
FFFDF03F
0000503E
000093B1
FFFF0D81
FFFFF181
FFFE561E
FFFF1554
FFFE7933
FFFE840A
FFFFA976
FFFC0A46
FFFEFC48
FFFEE8D1
FFFE6DAB
FFFEA1B1
FFFE3C94
00013999
00014C39
FFFD5BA4
FFFD6D44
FFFD75BF
FFFECC6D
FFFEA2BF
FFFF0216
FFFD5357
0000440B
00019EEF
FFFE8D18
FFFE89C7
00008B35
FFFFA497
FFFF165A
FFFEBC3B
FFFF8554
FFFE8CAD
FFFE9670
FFFD0FE7
FFFE559A
FFFD4C20
000178F6
FFFE1646
FFFD1A74
00009C5A
FFFE5397
FFFEFD8C
FFFECF83
FFFFF381
FFFDDB12
FFFEF0EF
00012CBD
FFFF2CD6
FFFF201E
00012CD4
FFFF28EA
FFFFE54C
FFFE7CDC
000018C7
FFFFAA9E
00004776
00015AB2
FFFE9E79
FFFEC50B
FFFE3FCC
FFFFF94F
FFFDADD9
FFFE2141
FFFEE0E7
FFFF7D47
FFFE7304
FFFF3446
FFFFD118
00014332
FFFEA6E7
FFFE8927
00001259
FFFF930C
FFFEFA3A
FFFEFF9E
FFFF7F75
0000E47A
FFFE4CDC
00017A27
0000E4C9
FFFF56F0
FFFEDCFD
FFFE339A
FFFE6955
000052F2
FFFD37BC
FFFFF334
0002495B
FFFED2A8
FFFCC309
FFFF7726
FFFE3F54
0001A048
00008C13
FFFE4F3C
FFFE79B6
FFFD6AA4
FFFE8136
FFFF1307
0000CD43
0000E7B5
FFFF0AA8
00017239
FFFEBCB8
FFFE6BEB
FFFFBF74
FFFF6110
FFFF7734
0000196B
0001DBC8
FFFFC63D
FFFEDDEE
0001EBD7
FFFEFE34
00002E50
0000BA34
FFFEC645
FFFE4C7F
FFFF88A2
FFFF2EC5
FFFFBED7
FFFAC313
FFFCF047
FFFDF787
FFFE535E
FFFCCD9E
00007BFF
C0000000
0000D7A3
FFFCFE0C
0001DC72
FFFDDCB4
FFFFBF02
00004F73
FFFE3988
00004E63
FFFD99AD
FFFF20D8
FFFEA339
FFFE63CD
FFFEF984
FFFF5249
FFFE7413
FFFC63D1
00002352
FFFE829A
FFFE4C6C
FFFF4682
FFFE234B
FFFFF9CE
FFFE6F8A
FFFE889E
FFFFED5F
FFFD6074
FFFDF42A
FFFE07EE
00007EBF
FFFF9E97
FFFDAABE
0000B0F5
FFFE630E
FFFD3F56
FFFE4D74
FFFDB553
FFFDA92F
FFFE7198
FFFF5C50
FFFE6F62
FFFEAB82
FFFFABC2
FFFE2271
FFFFE06A
00007930
FFFDEA6A
FFFE5FE2
FFFE1C28
FFFE160B
000096F2
FFFFAA34
FFFF60CF
FFFDFC00
0000BC20
FFFE13EE
FFFF31D9
FFFEA7A7
FFFC2A12
FFFEF622
FFFF6245
FFFCF0D1
FFFDDBEE
0001898E
FFFEA149
FFFD9C77
FFFF82BF
FFFE1678
0000129D
FFFE64AB
FFFF19D0
FFFF1493
FFFEF24C
FFFF2A5C
FFFDF49C
00011266
C0000000
FFFEC028
FFFEAFFE
FFFD7FA5
FFFE9213
FFFEFE4A
FFFF6338
FFFE3A74
FFFEF304
FFFEBD07
FFFF562B
FFFEB4FC
FFFFB4DB
FFFD8114
0000160A
FFFFDD5B
FFFE4F16
FFFF19D4
FFFEFABD
FFFF9019
FFFEC9D3
FFFF5127
FFFE48B9
FFFE2EF6
FFFE83F2
0000CA9D
FFFFA967
FFFF3226
FFFE3522
FFFDE7D2
0000471A
FFFD74FF
FFFD9DF1
FFFF9D26
FFFF9214
FFFF944F
FFFE4B88
FFFE4A9A
FFFFF774
FFFF221B
00002495
FFFE77E1
FFFD82E8
FFFEE8EC
0000F678
FFFE5E82
FFFEEEC9
FFFEE46D
FFFEB8EA
FFFF5324
FFFE9423
FFFF1D61
FFFEAAE5
FFFFAD96
FFFE9FAB
FFFF5631
FFFE8531
FFFF091F
0001C4DB
FFFEAB1B
FFFE7679
FFFE2CE6
FFFEE395
FFFF3080
00010475
FFFC4E97
FFFE5D23
FFFDC674
FFFE347C
FFFCBFB7
00001905
00000305
FFFD6FD4
000085CC
FFFFBEB9
FFFDC676
FFFE7840
FFFF04A0
FFFEF410
FFFE2366
FFFE32F3
FFFEB799
FFFE47E3
FFFFEC58
FFFE7165
FFFECEB9
FFFE89AA
FFFEADAE
FFFF3EE7
FFFEA72D
FFFDFBA9
FFFE99FB
FFFE52CE
FFFF0FE0
FFFE5E1B
FFFE61D5
FFFD82EB
FFFDDF9C
0002159A
FFFF787E
FFFF0E7C
0000B410
FFFF2F3D
FFFE4292
0000B095
FFFE24CC
FFFF0E46
FFFD4ABC
00007BA1
FFFDC6D0
FFFE7D63
000009DF
FFFE81A0
FFFDDC47
FFFDADF8
FFFE3AA9
FFFE2F2E
FFFD1E34
FFFD3D20
FFFE7131
FFFFCD46
0001C972
FFFFAA28
C0000000
FFFD4AFD
00002C7A
FFFDE9F8
FFFDCDB0
FFFFA93B
FFFE9F69
FFFE6E71
FFFE8E6F
000065C7
FFFC1784
FFFE4330
FFFF0173
FFFDE035
FFFEE189
FFFCC97D
FFFFA89A
FFFD5E32
FFFD3CA4
FFFEFE6C
FFFF7AFE
FFFF0AD0
FFFE5570
FFFDC734
00016FF1
FFFF967B
FFFFB2CD
FFFDD17F
FFFD44A1
FFFE1EE4
FFFF23FD
00012F73
0000F95D
FFFF25D9
FFFFBE03
FFFE3FD4
00001928
FFFF4E51
FFFDF255
FFFDD8CA
FFFD4336
FFFFD034
FFFED715
FFFF46B5
FFFDCB57
FFFF44FD
FFFDF9BD
FFFF55B4
FFFED220
00004785
FFFE8AEB
FFFFD8F3
FFFDE4E8
FFFCD437
00020623
FFFE8A07
FFFE6E7F
FFFF5CC5
00006547
00004BD1
FFFD855A
FFFDD985
FFFE2D4B
FFFDB71B
FFFFAA40
FFFF4634
FFFDF1C0
000060AB
FFFEC605
FFFDF235
FFFF69AF
FFFDCC3D
FFFCCA40
FFFF3FEC
FFFD5A3E
FFFDED93
000125F0
000017B6
FFFE9BF8
FFFFA1F2
FFFF6287
FFFDFCBC
FFFFEA7B
FFFE01FE
FFFE535A
FFFD4AC5
0000A869
FFFD853E
FFFFBDFA
FFFDDFFF
FFFF51F0
0000C23B
FFFE7285
FFFFE427
FFFDC5EB
0000D007
FFFEE91A
FFFE6A92
000082AC
FFFE1927
FFFF3ECA
FFFECBE6
FFFF9E80
FFFFCE48
FFFE4C91
FFFF2CC3
FFFE9E0B
00026EF0
FFFEFDB5
FFFFC738
FFFCE681
FFFF32D2
FFFE3529
FFFF23DE
C0000000
00004177
FFFE95B1
000093E5
00004BDF
00010F70
0003CE08
FFFE90FE
FFFE9EEE
FFFE61DF
FFFFDF64
FFFF1D28
00008EE9
FFFEC8A7
FFFF0FCD
FFFDEEF2
FFFE086E
FFFF5954
FFFE0B1D
FFFE6ABE
FFFEBD34
0000C844
FFFE3A03
00003407
FFFD7B76
FFFE3CA7
FFFFA5E5
FFFE36E8
FFFEA476
FFFD07FB
FFFFAFA9
FFFFC58F
0000BA1A
FFFEFC57
FFFE913D
FFFF5D13
FFFF1390
FFFEB8BB
FFFF23CA
FFFEDED1
FFFF001A
0000A5C1
FFFD9F9A
FFFE4233
0001D4C8
FFFE3CD1
FFFCA996
FFFFA949
FFFDAE7A
FFFE3E6F
FFFE95EB
00008EDA
FFFEA182
FFFF68B8
000141CA
FFFFBB08
FFFE7AB4
00002569
FFFD98AF
FFFF6555
FFFE79B3
FFFDEBA7
FFFDB3EE
FFFE6E5F
FFFDE8B7
FFFF588A
000177F7
FFFF2655
FFFD4D9D
0000F320
FFFF41C8
00007753
FFFE1ED3
FFFEA926
FFFE7DD4
0000B01D
FFFDAE3D
FFFE067E
FFFF30C6
FFFFC5C4
FFFDDA24
FFFDF226
FFFE87FE
FFFE85FE
FFFDEB56
000012D2
FFFF08B5
FFFE08E2
FFFFF232
FFFEEEDD
FFFFFE04
FFFE5741
FFFFABA2
FFFFC66F
FFFE7013
FFFF3CD5
FFFEAC9D
FFFE3A5E
FFFED0ED
FFFED018
FFFE0C55
00013B84
000054AA
FFFE58BA
FFFFABA7
FFFF7211
FFFE3EC4
FFFF73A5
FFFF11BC
FFFCCE30
FFFD75C0
FFFE7FE9
FFFE03D1
FFFD8EAE
FFFEB272
000014DF
FFFD4308
FFFF2B9C
FFFF051F
FFFDC345
FFFE93D2
FFFEBF58
FFFCE182
FFFE9697
FFFF483C
FFFF047C
FFFCB10B
FFFF8046
FFFE163A
000370E1
00005162
FFFD6BDE
FFFEB5B4
FFFF8A69
FFFCFE51
FFFC1055
0000BAC5
00011066
FFFCF614
FFFF0220
FFFF3D60
FFFE9336
FFFFE6A3
FFFF985B
FFFEE4F3
FFFF1500
FFFD62FE
FFFED2F9
FFFF0FFA
FFFEE821
FFFE6E1F
FFFF6365
FFFD99D0
FFFF4F41
FFFD27BB
00001970
FFFEDE5D
FFFF8566
FFFDD8E8
FFFE8A39
FFFE650F
FFFE5C5C
FFFD8EB2
FFFF2F0F
FFFF2288
0000C1E1
FFFF5CC1
0000E394
FFFCBDD9
FFFE668A
000006EE
FFFEEEB9
FFFEA417
FFFF3150
FFFE49FF
0000D68F
FFFD8716
FFFE7185
FFFF6330
FFFF3830
FFFF7E46
FFFDCAF2
FFFCBDD5
FFFDD164
FFFF55FD
FFFEC5F7
FFFD6387
FFFE8437
FFFE9939
FFFF14E6
FFFFC0D5
FFFF422C
000088CB
FFFD1205
FFFE7309
FFFF2D70
FFFFA02D
FFFE277C
FFFE3911
FFFF17A6
FFFC75EC
FFFDF9E8
FFFF94A9
FFFEC44E
FFFF3E48
FFFE3616
FFFEE077
00004AF2
FFFE23B0
FFFE9DA2
FFFFC309
FFFD80A8
FFFF08C9
FFFEECB0
FFFEB93A
FFFD7F1D
FFFE43E0
FFFEFAE7
FFFE7BA0
FFFEC0EF
FFFDEF04
FFFEFF1D
FFFE5269
0000DC18
FFFE48C2
FFFF1694
FFFEAAED
FFFEEA2D
FFFC893B
FFFE0C5F
00019A09
FFFDBF54
00000178
FFFEE0D9
FFFF82A5
FFFD725A
FFFD695C
00005B4F
FFFE7C1B
0001559A
FFFF062D
FFFF95B6
FFFCE701
00022782
0000EE0B
FFFDADFF
FFFD3474
FFFDA848
FFFFEA3D
FFFDCF9B
FFFF6307
FFFE4776
00007B80
FFFD9F11
FFFF509B
00007EF6
FFFEE059
FFFF6C05
FFFEE6BD
FFFE5BC8
FFFF6414
FFFE64A1
FFFE4C78
FFFF30FC
00011588
FFFDDE64
FFFF42EC
FFFE3D6E
FFFDB98E
FFFE447C
FFFE3244
FFFCFDA4
FFFF8FA2
FFFE402A
0001126B
FFFEC5E1
FFFF2461
0002338A
FFFD9368
FFFEC9DC
FFFD5410
FFFE4C46
FFFF3517
FFFF92CA
00011298
FFFEFC69
FFFDF016
FFFEABA9
FFFED688
FFFEA8AA
FFFF7BF5
FFFFEBED
FFFF5071
FFFE819D
FFFE1A2C
00003AB7
FFFF8D6E
FFFFDADD
FFFCC6C9
FFFE93D7
FFFF8C3A
0001129E
FFFE9F3D
FFFF0FB1
FFFF6760
FFFF9C9B
FFFE826E
FFFE0C5A
000017C4
FFFD9B0B
FFFE3EC1
FFFDE688
FFFDAD07
FFFFA56C
FFFF852D
FFFDDE29
FFFFD89C
FFFEAAB3
FFFE9EF6
FFFEA72F
FFFDEEB2
0000EB7E
FFFE1038
FFFD30BA
FFFE7564
FFFE03D5
0001CEC2
00002171
FFFE150A
FFFF8EC7
0000413C
000114BD
FFFEFCEF
FFFF228F
FFFDC768
FFFF401C
FFFEAEA4
FFFE4ECF
FFFFD275
FFFE25DF
FFFEAE56
000239D5
FFFFC638
FFFEC981
FFFED85F
FFFE8E07
FFFF0519
FFFFF820
FFFEC0F9
000113A5
00014F19
FFFF48FA
FFFE80BE
FFFCADE2
0001BDF0
FFFEE674
FFFFCB76
00004455
00002DEC
FFFFD50B
FFFFB0DD
FFFE2718
FFFDB852
FFFE9703
FFFF54E6
FFFF1D70
FFFE8571
FFFD7F71
FFFE5C88
FFFE3F4F
FFFF5206
FFFE4232
FFFFAB4C
FFFE8430
0002D5A6
FFFE053B
FFFE03EC
FFFED02A
FFFE9A27
FFFE0932
FFFEBD52
FFFE5613
FFFEE85A
FFFF74DC
0000813D
FFFDFF19
FFFE2AA4
FFFE4EB7
000055F5
FFFF6AE6
00020751
FFFD3C68
FFFF4BB1
FFFF1585
FFFDF596
FFFF6E45
FFFDFA4F
FFFEA136
FFFF059E
FFFF340E
FFFE9944
FFFE685F
FFFEEDBE
FFFFB30C
FFFC51C4
FFFF24DA
FFFE11FB
FFFE4082
FFFEDA4A
FFFE4181
00005E92
FFFF175A
FFFF7C63
FFFF05A5
0000AD7A
FFFF3865
FFFFC616
FFFF9E40
0000A21D
FFFE4F79
FFFF3EDB
00005A6E
FFFFBD12
FFFFD880
0000142C
FFFF15B5
FFFF48E6
0001EDEB
FFFDD06E
FFFDF08E
FFFEA1B2
FFFE2E1E
FFFE09E2
00004A1B
FFFDC704
FFFE85C5
FFFDCF15
FFFCC1FA
FFFFC773
FFFEF3E5
FFFF5326
FFFE4C7F
FFFF4842
FFFE1D18
FFFE6665
000029B3
00024F21
00008BA3
FFFE2DE9
FFFF1C84
FFFCD64D
FFFDC58E
FFFFAFE0
0000026F
FFFE76F4
FFFE0373
FFFF326A
000077AB
FFFE8CE9
FFFE42CB
FFFE8044
FFFE0F16
FFFF534C
00014B0A
FFFF8BA9
0001A396
FFFF6AB4
FFFE964D
FFFF204A
FFFF22A4
FFFD8A6F
FFFEF57F
0001588A
0000E4DF
00007580
FFFDAAC8
FFFE33DE
FFFE6D19
FFFE6051
FFFFC45F
FFFF569C
000179B2
FFFD20AA
FFFEB6DF
00015F47
FFFE6D99
FFFE6411
000094C6
FFFEB6F4
0000FAA8
FFFE4C47
0000CC91
0000555D
FFFED06F
FFFE4435
FFFF4940
FFFEBE9A
FFFDCC0A
FFFF7B95
FFFF9734
FFFF17CD
FFFE337B
FFFDABF8
0001E205
00013FD6
FFFD8350
FFFEEE48
FFFDD8AD
FFFD9534
FFFDB83B
FFFF968C
FFFE7F6B
FFFEAD14
FFFEE6B6
FFFEA8AE
FFFF3BBE
FFFE3A44
FFFDFE93
FFFDD20E
FFFE70B0
FFFE9D53
FFFF99D8
FFFE0815
0001BB61
FFFF1EE1
FFFE00DA
FFFFC18A
FFFDEDA7
FFFCDC9F
FFFCA1E8
FFFFA8D4
FFFC531C
FFFC237B
FFFB5CDC
FFFF0D0D
FFFE4186
FFFCBC4D
FFFF2768
FFFFCBCF
FFFD39FF
FFFD90F8
FFFE46F7
FFFC6EB4
FFFB3183
FFFDC2E7
FFFE2B1C
FFFE3E8C
FFFC37DF
FFFF83FB
FFFCF769
FFFB6BF9
FFFD855E
FFFC8F96
FFFE85AC
FFFDE5BE
FFFDD208
FFFC5AF0
FFFD8BA3
FFFFBD83
FFFC9B26
FFFD0687
FFFE7CA3
FFFD1DAF
FFFF3D4C
FFFD7919
FFFFF9C8
FFFEDBBF
FFFCEF3E
FFFF0A76
FFFD161B
FFFE2E39
FFFE97BA
FFFDB1FA
FFFF8A9D
FFFE0A89
FFFE9FD2
FFFD53A1
FFFA2EBA
FFFD08B0
FFFCBBE5
FFFEB907
FFFCFF15
FFFEC263
FFFC3FF5
FFFCC8CF
FFFE00A0
FFFD2574
FFFC8B82
FFFC4F4E
FFFD5164
FFFCDEC2
FFFB5D83
FFFE4D3D
FFFE594B
FFFF45CD
FFFDFB48
FFFBC636
FFFBBBB3
FFFE4892
FFFCDA33
FFFD064C
FFFF962A
FFFF5C59
FFFCE2FE
FFFFF606
FFFD54F5
FFFECE7D
FFFEE537
FFFBF51E
FFFDC42E
FFFCCDF8
FFFE7DD5
FFFEFD1D
FFFDE451
FFFD773C
FFFD7917
FFFCF541
FFFCC5D8
FFFECC40
FFFBF06D
FFFF8A72
FFFEE9DB
FFFC760F
FFFD2A5B
00004881
FFFCF7E5
FFFC0376
FFFCBEDC
FFFF0B2C
FFFE547A
FFFE8FA4
FFFD40DB
FFFD9AE6
FFFE309C
FFFD0655
FFFF922D
FFFD3F56
FFFD1B7D
FFFEBAE4
FFFBF761
FFFD777F
FFFEEFB0
FFFD45A0
FFFF7FB7
FFFE0F66
FFFC2A8D
FFFD3CED
FFFA5F5B
FFFCB6B0
FFFCF32B
FFFCA5B6
FFFE22AD
00007640
FFFE5CF6
FFFCDFFD
FFFD22DD
FFFEC824
FFFE23FD
FFFB6FBF
FFFD9FEE
FFFE5B78
FFFCE4A6
FFFCB42B
FFFB889B
FFFBF4FA
FFFD5EF6
FFFCE757
FFFD1770
FFFE7A48
FFFFB0FA
FFFFADD9
FFFEEC9D
FFFBCCA3
FFFE3FF5
FFFD4C5F
FFFE1FDE
FFFDDC37
FFFE7642
FFFE399A
FFFDD351
FFFCCAE5
FFFE8A2A
FFFE0DBC
FFFC37ED
FFFE9AA8
FFFDFA7C
FFFF07DC
FFFDF4DD
FFFBCFF2
FFFD77DF
FFFD04AF
FFFF8E93
FFFE069A
FFFF8674
FFFCD7F6
FFFF458C
FFFC5BDC
FFFE4B5C
FFFC3207
FFFA4617
FFFC6F29
FFFBDFE5
FFFE2B6D
FFFD305B
FFFC75FB
FFFDCDF7
FFFE02C5
FFFC842F
FFFF33BC
FFFD2EB6
FFFDDB3D
FFFF7C0D
FFFC2147
FFFBDCA0
FFFFB496
FFFEF678
FFFD6FAC
FFFBC34D
FFFBD9B3
FFFEFFD1
FFFEA2AD
FFFF631B
FFFE4EEA
FFFDDF7A
FFFED37F
FFFCA511
FFFDC9C3
FFFEF331
FFFD0DA0
FFFD5DF3
FFFBDB42
FFFC8B3C
FFFE170E
FFFE4856
FFFD28E8
FFFDFC1E
FFFE1766
FFFE6718
FFFCDE04
FFFEFEE5
FFFE0BE6
FFFCFA86
FFFCFC7A
FFFC0CE1
FFFC4DF8
FFFCC69B
FFFED9C2
FFFE168E
FFFE23E7
FFFD6986
FFFE8D5D
FFFC72EC
FFFDC956
FFFF3880
FFFF076D
FFFD50D0
FFFFC152
FFFD6806
FFFDCF4B
FFFD1D52
FFFD592E
FFFE01AB
FFFCA20F
FFFD2C9C
FFFD73DE
FFFC0981
FFFEF4EB
FFFF599B
FFFD4FCA
FFFCDEB2
FFFDD856
FFFEB239
FFFC64D2
FFFDAD5A
FFFD7D6D
FFFF1A21
FFFC99DC
FFFDFC3D
FFFDB192
FFFE0949
FFFED966
FFFF4100
FFFDEA38
FFFCBDCC
FFFCCA7C
FFFD6238
FFFD8F46
FFFEC002
FFFBC7C8
FFFEA843
FFFDBACB
FFFBB5B8
FFFF195B
FFFDEFEF
FFFDAB88
FFFB6DDF
FFFCE055
FFFEC95D
FFFE54B8
FFFE1541
0000395C
FFFDB7C6
FFFF37FE
FFFD0775
FFFC23AA
FFFEB4BC
FFFE1AF1
FFFD53AD
FFFEDAA4
FFFE4753
FFFD90E3
FFFD7388
FFFDDB01
FFFE8DA0
FFFE0862
FFFEF8E8
FFFF3D4C
FFFCBC99
FFFD0FCC
FFFF8653
FFFDEB4E
FFFF3147
FFFD2E82
FFFDCF64
FFFDBE26
FFFE6F0D
FFFD5149
FFFE5246
FFFC6C1D
FFFDF0E0
FFFD72BE
FFFF4BFE
FFFDA7E2
FFFCB213
FFFDCEC6
FFFE19D6
FFFDC496
FFFDFB0B
0000259A
FFFA1C9E
FFFD8075
FFFCF38D
FFFD05F9
FFFE2144
FFFD64D7
FFFC4E61
FFFD11CC
FFFDD916
FFFD53B3
FFFECD22
FFFBFBD8
FFFF2777
FFFC4AF3
FFFEAEF0
FFFC9B7B
FFFDFC4E
FFFE0843
FFFD9841
FFFE3F80
FFFE7968
FFFB3295
FFFC100E
FFFDF720
FFFE320C
FFFD1D7A
FFFEB61F
FFFF04BC
FFFE953E
FFFE1045
FFFB0924
FFFF2704
FFFEFEA9
FFFE8E3D
FFFE0F53
FFFFD44F
FFFCD1E7
FFFAA6A0
FFFE85EB
FFFE8DE4
FFFCA9A1
FFFE0274
FFFCC2F0
FFFD61CB
FFFD1526
FFFDB8C0
FFFC5EFF
FFFD01B4
FFFF8791
FFFE18DC
FFFBCA02
FFFECAAC
FFFD4AC4
FFFE7EC3
FFFD933C
FFFF6448
FFFD4F88
FFFE19B0
FFFBA0AE
FFFF73FC
FFFD76E9
FFFBF79F
FFFAFDB3
FFFEAFA2
FFFE115B
00003CA4
0001343A
FFFCA90C
FFFC893F
FFFE43A3
FFFEC0E5
FFFD0E5F
FFFED3D9
FFFE4A9C
FFFE62AC
FFFD2C57
FFFEF3E4
FFFF55B6
FFFBEA68
FFFF069D
FFFD01D0
FFFCE687
FFFE338E
FFFF2BE4
FFFC279E
FFFE1459
FFFB0BF9
FFFE970B
FFFCF75E
FFFE5C84
FFFC999A
FFFDD091
FFFE3530
FFFEE83F
FFFD187C
FFFE4CFD
FFFE5C32
FFFBCFAA
FFFCA3E0
FFFBB269
FFFDC0EC
FFFE5747
FFFE7E70
FFFCB062
FFFA7287
FFFE91E0
FFFED01B
FFFB921F
FFFE2335
FFFD82FF
FFFC760F
FFFD435B
FFFCCB8A
FFFE1F95
FFFE4787
FFFD455D
FFFCDD19
FFFBE2E4
FFFF6B28
FFFE2EAA
FFFD3343
FFFC5A66
FFFDCE65
FFFF1453
FFFCF33C
FFFD062C
FFFCBDE4
FFFE3EF1
FFFDE063
FFFC743A
FFFEA383
FFFD10E9
FFFE536D
FFFA9BD0
FFFD9A81
FFFEC667
FFFDBF6F
FFFE6A45
FFFFCD28
FFFB9CF6
FFFFFBA9
FFFCD12C
FFFCA89A
FFFDDD66
FFFE47D1
FFFD9897
FFFE15D3
00017D3A
FFFE9AD7
FFFCBDC5
FFFE6A6E
FFFE8C06
FFFE4584
FFFF4933
FFFDE3A5
FFFEAE6F
FFFD6911
FFFFC1A4
FFFF8679
FFFC6432
FFFEED8E
FFFE2DE3
FFFC407E
FFFE39A6
FFFCA709
FFFD4DF4
FFFD6CD0
FFFE6711
FFFD5F89
FFFC574B
FFFCCAE0
FFFD0619
FFFE3638
FFFC9B35
FFFE00E4
FFFCC46E
FFFCA82B
FFFCECA7
FFFD625B
FFFE3456
FFFD3445
FFFE9039
FFFF1515
FFFF0D57
FFFF0486
FFFE531C
00003D49
FFFCEC5E
FFFE43B7
FFFF258D
FFFECAC5
FFFCEC1E
FFFDBEB4
FFFED9DE
FFFC32DB
FFFE7DCD
FFFE920C
FFFE5BB0
FFFD539C
FFFA5316
FFFE9ABF
FFFD4841
FFFC47FC
FFFD3C30
FFFC0405
FFFEDAD9
FFFDA965
FFFD69AE
FFFD94A9
0001A411
FFFE069A
FFFE3547
FFFC8220
FFFCCD40
FFFD8EF7
FFFC248F
FFFCE35E
FFFCDF23
FFFE4EC0
FFFE697B
FFFC56AD
FFFDA333
FFFF6D76
FFFC348D
FFFDE794
FFFB1214
FFFF4333
FFFA3E28
FFFD3E18
FFFD406F
FFFCD583
FFFE9C18
FFFFF9C8
FFFFD83A
FFFF5580
FFFE162E
FFFE78FE
FFFAFBFB
FFFD3E9C
FFFEC373
00004CC4
FFFE9078
FFFEB91D
FFFD7706
FFFB4031
FFFEC934
FFFD035D
FFFC42D5
FFFE5F53
FFFCEECB
FFFDBB29
FFFCBD75
FFFE1526
FFFE344C
FFFF0EA9
FFFE6AE5
FFFD24C6
FFFE481D
FFFECA4B
FFFCDF01
FFFFAC03
FFFE2501
FFFD9D4F
FFFDC334
FFFD9F02
FFFBB32B
FFFDCBE8
FFFC876D
FFFD9BBF
FFFD112D
FFFDF658
FFFE493E
FFFBE081
FFFCF001
FFFC19CC
FFFD5A12
FFFE3B4F
FFFBE3D4
FFFE9051
FFFCB641
FFFE5C08
FFFD88BA
FFFD468A
FFFD9B3A
FFFD35A6
FFFD07CA
FFFE0372
FFFE64DC
FFFC69BE
FFFD42D8
FFFEE48C
FFFEC172
FFFCC7D9
FFFE7B5F
FFFDB15C
FFFF12D2
FFFCCC23
FFFED492
FFFE4027
FFFD92A6
FFFDF092
FFFE8B2F
FFFC9E10
FFFD735C
FFFE0872
FFFDD368
FFFF1C06
FFFCB198
FFFF74DB
FFFE8236
FFFFE277
FFFC8286
FFFDC13F
FFFCFA8D
FFFF52D1
FFFDF7B1
FFFDEF05
FFFE6FA3
FFFE0BFD
FFFDD816
FFFE2649
FFFE0716
FFFE3B1B
FFFDDED2
FFFE4056
FFFDAEA9
FFFDD209
FFFF7BB7
FFFDC765
FFFCF3E7
FFFCE0DB
FFFC6851
FFFDF3C0
FFFCF553
FFFCAE72
FFFF1961
FFFC8502
FFFDDF1A
FFFCECCB
FFFDC7E4
FFFDEA67
FFFBBBCA
FFFCFA68
FFFE3C69
FFFC042C
FFFB0B02
FFFB810E
FFFEE7F9
FFFD64D0
FFFE948E
FFFE7D29
FFFDBE2D
FFFF10DE
FFFBBD4A
FFFE8FA7
FFFDE996
FFFCF782
FFFEF013
FFFE3983
FFFE2B86
FFFE2340
FFFD6BE9
FFFD51D2
FFFD6D9D
FFFE4874
FFFD0217
FFFD192F
FFFC9E76
FFFEAD94
FFFE8000
FFFDDD3B
FFFD86C6
FFFD2E01
FFFBEA6F
FFFCDCF5
FFFE090D
FFFDE271
FFFCD17E
FFFDB56B
FFFB3A1C
FFFE3A96
FFFE4892
FFFDA3B5
FFFF8918
FFFD0C58
FFFEAD46
FFFA6FA6
FFFE705E
FFFE8692
FFFEAA9B
FFFE82D3
FFFEF876
FFFD3FDB
FFFD73F5
FFFE8F13
FFFEED9E
FFFF4B70
FFFF6C32
FFFE31D4
FFFEB783
FFFCBEBF
FFFCED7A
FFFCF0A1
FFFD5CB0
FFFE00D5
FFFE3027
FFFEDC3D
FFFF5650
FFFB69A8
FFFE0E2B
FFFDE24F
FFFEB1EE
FFFDBA5F
FFFED1FC
FFFE6178
FFFD8709
FFFD0BF6
FFFDABEC
FFFAECA7
FFFD4A1E
FFFF23FF
FFFD54C4
FFFBDB82
FFFCAF6E
FFFC0246
FFFDFF63
FFFD8AD9
FFFEFC39
FFFF582C
FFFEFCF5
FFFD109C
FFFC7D92
FFFCDAE5
FFFC7C27
FFFD5E22
FFFF84E3
FFFC48AA
FFFDB489
FFFC7ECA
FFFFE0A6
FFFD4D29
FFFCF6FD
FFFD5DB8
FFFE5DA5
FFFE080A
FFFD62A8
FFFD60AF
FFFF1ED4
FFFCFF9E
FFFFC44E
FFFDDC39
FFFC8F24
FFFD0FF2
FFFDF0FD
FFFE6A40
FFFE6D82
FFFC95DE
FFFE62CA
FFFE8977
FFFD3569
FFFF934D
FFFD1070
FFFBE41D
FFFCFCE3
FFFC2937
FFFB0D2E
FFFDEF68
FFFCC212
FFFC8869
FFFF041A
FFFD4633
FFFE537B
FFFB7C96
FFFCA9F0
000017BB
FFFE4037
FFFB2587
FFFFC546
FFFC80FD
FFFD5ED4
FFFDCF76
FFFD0640
FFFEEA47
FFFE5394
FFFDDC26
FFFD241C
FFFE5BBE
FFFD1BA7
FFFBEBC5
FFFCE7FC
FFFE62FD
FFFE0EE0
FFFCD869
FFFC44E0
FFFCABD6
FFFEB959
FFFE83C3
FFFC8954
FFFE735F
FFFF3E18
FFFE3B15
FFFC979D
FFFAF9DE
FFFDA7D2
FFFEBE1A
FFFB66E8
FFFDF879
FFFD0FC2
FFFF39A9
FFFD0C73
FFFD08BD
FFFCF1AB
FFFE001E
FFFE5B30
FFFC18DC
FFFCF5BF
FFFE2209
FFFC05E0
FFFE53AA
FFFD067C
FFFEE49E
FFFDE39A
FFFDD9FE
FFFE3B11
FFFC294F
FFFC3780
FFFD344E
FFFEF521
FFFDCDDB
FFFD0429
FFFE08DD
FFFDF919
FFFB79D9
FFFE944F
FFFE8943
FFFE92DF
FFFDD943
FFFE13D5
FFFF36E5
FFFDBB35
FFFDA185
FFFD7DCB
FFFD2FB2
FFFDAB3F
FFFE5647
FFFF24CE
FFFDBA35
FFFCD078
FFFE421D
FFFE16AE
FFFDCA49
FFFDB2BE
FFFD1B0C
FFFBE68A
FFFCCE24
FFFD6077
FFFEB584
FFFCFE4E
FFFDFC06
0000AA9E
FFFE83A3
FFFE8E1A
FFFDD2ED
FFFF84FC
FFFE09D2
FFFDF978
FFFF75B9
FFFE2C58
FFFCC150
FFFD0203
FFFD9091
FFFDAB17
FFFF2FDD
FFFC39E1
FFFF55C2
FFFCFCE4
FFFDF85C
FFFF967F
FFFF4CAD
FFFFA987
FFFD8726
FFFE08DF
FFFD491B
FFFB4045
FFFDFAE6
FFFCBB2B
FFFB7A05
FFFC0422
FFFFA64A
FFFED387
FFFDB3D8
FFFE66F6
FFFF4E49
FFFE24D7
FFFE521F
FFFCCF26
FFFC6F70
FFFC185E
FFFD573B
FFFCBF81
FFFDA7B2
FFFC8AAA
FFFD0DA7
FFFEA076
FFFBFACC
FFFE0BC4
FFFD1673
FFFBEF98
FFFBFE08
FFFC675A
FFFD5CC7
FFFEE963
FFFBD27F
FFFCE430
FFFB038C
FFFF3BA9
FFFD6930
FFFD7ABA
FFFE1565
FFFE4C34
FFFC2317
FFFD9484
FFFDF9E2
FFFF9A2C
FFFD4704
FFFF64AA
FFFD1258
FFFBFAD1
FFFBE57B
FFFECBD3
FFFEB4F5
FFFD5129
FFFD91EE
FFFE988C
FFFD301D
FFFF8B4B
FFFCF41C
FFFC88B3
FFFD3CC9
FFFF1B2C
FFFC3395
FFFCDD2E
FFFE14DE
FFFE5F5D
FFFBF122
FFFEF755
FFFF5093
FFFD7AA1
FFFCAE5B
FFFEB2A9
FFFE021B
FFFC7228
FFFD5852
FFFDD0D0
FFFC9BDE
FFFF21B3
FFFD03D2
FFFD7B3B
FFFC789C
FFFF3389
FFFEFF74
FFFF0150
FFFF2F7E
FFFEE535
FFFCFBC6
FFFD9203
FFFE5559
FFFE6457
FFFBB249
FFFEE722
FFFC6DC8
FFFCBA95
FFFDBAC3
FFFDAE6A
FFFDF3F8
FFFD63F6
FFFE1A14
FFFEB8BD
FFFE44FD
FFFE9F8D
FFFF8FB3
FFFD5D40
FFFE9D14
FFFEC4DE
FFFE4249
FFFD70DB
FFFF2084
FFFC870F
FFFC72E0
FFFE1E53
FFFC7F4E
FFFD6829
FFFBB4F2
FFFECB70
FFFEF308
FFFE5730
FFFF7E80
FFFE7A2A
FFFF7E17
FFFC6FA2
FFFDC978
FFFE9F59
FFFFED29
FFFD0FA0
FFFC208C
FFFE7296
FFFD3E01
FFFBB81E
FFFE994D
FFFE6A84
FFFF34A8
FFFCE6F1
00007ADD
FFFD8B40
FFFC4E81
FFFD66C5
